{"idx_to_token": {"0": "[PAD]", "1": "[UNK]", "2": "\uff0c", "3": "\u3002", "4": "\u4e86", "5": " ", "6": "\u662f", "7": "\u6211", "8": ",", "9": ".", "10": "\uff01", "11": "\u4e5f", "12": "\u4e0d", "13": "\u5728", "14": "\u9152\u5e97", "15": "\u6709", "16": "\u5f88", "17": "\u90fd", "18": "\u5c31", "19": "\u623f\u95f4", "20": "\u6ca1\u6709", "21": "\u548c", "22": "\u3001", "23": "\u4e66", "24": "\u770b", "25": "\u8bf4", "26": "\u8fd8", "27": "\u6211\u4eec", "28": "\u53ef\u4ee5", "29": "\u4e0d\u9519", "30": "\u4eba", "31": "\u8981", "32": "\u4e70", "33": "\u5230", "34": "\u8fd8\u662f", "35": "\u670d\u52a1", "36": "\u611f\u89c9", "37": "\u8fd9", "38": "\u53bb", "39": "\u592a", "40": "\u6bd4\u8f83", "41": "\u7ed9", "42": "\u6ca1", "43": "\u4f46", "44": "\u5c31\u662f", "45": "\u7528", "46": "\u8ba9", "47": "\u4e00\u4e2a", "48": "\u597d", "49": "\u5bf9", "50": "\u4f4f", "51": "\u8fd9\u672c\u4e66", "52": "\u4e0a", "53": "\uff1a", "54": "\u81ea\u5df1", "55": "\u4e2d", "56": "\u5c0f", "57": "\u975e\u5e38", "58": "\uff1f", "59": "\u4f46\u662f", "60": "\u8fd9\u4e2a", "61": "\u4ec0\u4e48", "62": "\u8fc7", "63": "\u5165\u4f4f", "64": "!", "65": "\u4e0d\u662f", "66": "\u4ed6", "67": "~", "68": "\u5f97", "69": "\u540e", "70": "\u80fd", "71": "\u5dee", "72": "\u4f1a", "73": "\u65f6", "74": "\u4ef7\u683c", "75": "\u624d", "76": "\u5f88\u597d", "77": "\u4e2a", "78": "\u6765", "79": "\u89c9\u5f97", "80": "\uff1b", "81": "\u4f60", "82": "\u800c\u4e14", "83": "\u6709\u70b9", "84": "\u53c8", "85": "\u65f6\u5019", "86": "\u60f3", "87": "\u201c", "88": "\u5927", "89": "\u5979", "90": "\uff09", "91": "\u201d", "92": "\u5b69\u5b50", "93": "\u4e0d\u8fc7", "94": "\u7cfb\u7edf", "95": "\u56e0\u4e3a", "96": "\u91cc", "97": "\u6bd4", "98": "\u518d", "99": "\u559c\u6b22", "100": "\uff08", "101": "\u524d\u53f0", "102": "\u5f88\u591a", "103": "\u95ee\u9898", "104": "\u591a", "105": "\u771f", "106": "\u65e9\u9910", "107": "\u628a", "108": "\u5982\u679c", "109": "\u7740", "110": "\u8fd8\u6709", "111": "\u8fd9\u6837", "112": "\u4ece", "113": "\u4e00\u822c", "114": "\u4e00\u672c", "115": "\u643a\u7a0b", "116": "\u4e00", "117": "\u670d\u52a1\u5458", "118": "\u8bbe\u65bd", "119": "\u554a", "120": "\u88c5", "121": "\u6240\u4ee5", "122": "\u53d1\u73b0", "123": "\u90fd\u662f", "124": "\u73b0\u5728", "125": "\u4e0d\u80fd", "126": "\u4e0e", "127": "\u5bbe\u9986", "128": "\u4e0d\u77e5\u9053", "129": "\u5df2\u7ecf", "130": "\u4e0b", "131": "\u4e1c\u897f", "132": "\u867d\u7136", "133": "\u65f6\u95f4", "134": "\u770b\u5230", "135": "\u5185\u5bb9", "136": "\u4e0d\u597d", "137": "\u8bfb", "138": "\u88ab", "139": "\u90a3", "140": "\u4ed6\u4eec", "141": "-", "142": "\u4e4b", "143": "\u6700", "144": "\u5e94\u8be5", "145": "\u2026", "146": "\u600e\u4e48", "147": "\u505a", "148": "\u300b", "149": "1", "150": "\u300a", "151": "\u4f5c\u8005", "152": "\u65b9\u4fbf", "153": "\u60a8", "154": "2", "155": "\u5ba2\u4eba", "156": "\u670b\u53cb", "157": "\u9001", "158": "\u4e3a", "159": "\u4e00\u4e9b", "160": "?", "161": "\u5e0c\u671b", "162": "\u6709\u4e9b", "163": "\u66f4", "164": "\u9ad8", "165": "\u63a8\u8350", "166": "\u6027\u4ef7\u6bd4", "167": "\u800c", "168": "\u73af\u5883", "169": "\u623f", "170": "\u9a71\u52a8", "171": "\u91cc\u9762", "172": "\u7b49", "173": "\u53ef\u80fd", "174": "\u5b9e\u5728", "175": "\u5199", "176": "\u70b9", "177": "\u5374", "178": "\u952e\u76d8", "179": "\u4e0d\u4f1a", "180": "\u5176\u4ed6", "181": "\u53ea\u6709", "182": "\u4e00\u4e0b", "183": "\u5efa\u8bae", "184": "\u5927\u5bb6", "185": "\u4ee5\u540e", "186": "\u4f4d\u7f6e", "187": "\u6362", "188": "\u901f\u5ea6", "189": "3", "190": "\u5b83", "191": "\u6545\u4e8b", "192": "\u7279\u522b", "193": "\u5730\u65b9", "194": "\u503c\u5f97", "195": "\u5c4f\u5e55", "196": "\u9009\u62e9", "197": "\u4e00\u70b9", "198": "XP", "199": "\u4e5f\u662f", "200": "\u9700\u8981", "201": "\u914d\u7f6e", "202": "\u751f\u6d3b", "203": "\u5916\u89c2", "204": "\u697c", "205": "\u7ed3\u679c", "206": "\u6001\u5ea6", "207": "\u4e00\u6837", "208": "\u4e00\u76f4", "209": "\u53ea", "210": "\u5bf9\u4e8e", "211": "\u8d28\u91cf", "212": "\u5c45\u7136", "213": "\u5730", "214": "\u6563\u70ed", "215": "\u53ea\u662f", "216": "\u50cf", "217": "\u5e26", "218": "\u633a", "219": "\u665a\u4e0a", "220": "\u53ef", "221": "\u4e0b\u6b21", "222": "\u51fa", "223": "\u5403", "224": "\u672c", "225": "\u53ea\u80fd", "226": "\u8ddf", "227": "\u9002\u5408", "228": "\u8ba2", "229": "\u4e0d\u592a", "230": "\u8be5", "231": "\u771f\u662f", "232": "\u5f00\u59cb", "233": "\u5185\u5b58", "234": "\u8981\u6c42", "235": "\u4e0d\u8981", "236": "\u7535\u6c60", "237": "\u90a3\u4e48", "238": "\u540e\u6765", "239": "\u8bb2", "240": "\u7535\u8bdd", "241": "\u8bdd", "242": "\u58f0\u97f3", "243": "\u627e", "244": "\u8d77\u6765", "245": "\u8fd8\u4e0d\u9519", "246": "\u4eac\u4e1c", "247": "\u524d", "248": "\u6700\u540e", "249": "\u4f7f\u7528", "250": "\u79bb", "251": "\u5f88\u5927", "252": "\u4eba\u5458", "253": "\u88c5\u4fee", "254": "\u53ef\u662f", "255": "\u5f88\u4e0d\u9519", "256": "\u77e5\u9053", "257": "\u95f4", "258": "\u7f51\u4e0a", "259": "\u53e6\u5916", "260": "\u4e2a\u4eba", "261": "\u521a", "262": "\u8fd9\u4e48", "263": "\u5f00", "264": "\u65b0", "265": "\u95ee", "266": "\u5176\u5b9e", "267": "\u8fd9\u79cd", "268": "\u8fd9\u5bb6", "269": "4", "270": "\u6807\u51c6", "271": "\u5f53\u5f53", "272": "\u5b89\u88c5", "273": "\u9910\u5385", "274": "\u6536\u5230", "275": "\u7535\u8111", "276": "\u5de5\u4f5c", "277": "\u7adf\u7136", "278": "\u6765\u8bf4", "279": "\u5c11", "280": "\u673a\u5668", "281": "\u5e72\u51c0", "282": ")", "283": "\u4e3a\u4ec0\u4e48", "284": "\u6ee1\u610f", "285": "\u5e76", "286": "\u5c06", "287": "\u70b9\u8bc4", "288": "\u51fa\u6765", "289": "\uff0e", "290": "\u8d35", "291": "\u513f\u5b50", "292": "\u536b\u751f\u95f4", "293": "\u597d\u50cf", "294": "\u5feb", "295": "\u514d\u8d39", "296": "\u6839\u672c", "297": "\u6253", "298": "\u4fbf\u5b9c", "299": "\u4e0a\u7f51", "300": "\u770b\u5b8c", "301": "\u65e7", "302": "\u6240", "303": "\u4e4b\u540e", "304": "\u8fde", "305": "\u7231", "306": "\u65e0", "307": "\u9605\u8bfb", "308": "\u94b1", "309": "\u4ee5", "310": "\u786e\u5b9e", "311": "\u7b97", "312": "(", "313": "\u786c\u76d8", "314": "\u4ea4\u901a", "315": "\u6162", "316": "\u5f53", "317": "\u505a\u5de5", "318": "\u8fd9\u6b21", "319": "\u52a0", "320": "\u5f88\u559c\u6b22", "321": "\u63d0\u4f9b", "322": "\u5475\u5475", "323": "\u9884\u5b9a", "324": "\u9000\u623f", "325": "\u672c\u6765", "326": "\u5931\u671b", "327": "\u5927\u5802", "328": "\u90a3\u4e2a", "329": "\u8bbe\u8ba1", "330": "\u5c0f\u8bf4", "331": "\u4ee5\u524d", "332": "\u6240\u6709", "333": "\u901a\u8fc7", "334": "\u7a7a\u8c03", "335": "\u770b\u770b", "336": "\u8fd8\u7b97", "337": "\u6253\u7535\u8bdd", "338": "\u8bc4\u8bba", "339": "\u4e2d\u56fd", "340": "\u57fa\u672c", "341": "\u8fd1", "342": "\u5148", "343": "\u7b2c\u4e00\u6b21", "344": "\u65e0\u6cd5", "345": "\u5df2", "346": "\u53eb", "347": "\u5185", "348": "\u5c24\u5176", "349": "\u8fd9\u91cc", "350": "\u4e00\u5b9a", "351": "\u611f\u8c22", "352": "\u5927\u5e8a", "353": "\u6210", "354": "\u6548\u679c", "355": "\u5b8c\u5168", "356": "\u9648\u65e7", "357": "\u9ebb\u70e6", "358": "\u62ff\u5230", "359": "\u5b9d\u5b9d", "360": "\u7b80\u5355", "361": "\u76f4\u63a5", "362": "\u6027\u80fd", "363": "\u5e2e", "364": "\u6587\u5b57", "365": "\u4e86\u89e3", "366": "\u6f02\u4eae", "367": "\u542c", "368": "\u8865\u5145", "369": "\u4e9b", "370": "\u5973\u513f", "371": "\u522b", "372": "\u4ecb\u7ecd", "373": "\u56de\u6765", "374": "\u62ff", "375": "\u5f88\u5feb", "376": "\u76f8\u5f53", "377": "\u6700\u597d", "378": "\u65b9\u9762", "379": "\u539f\u6765", "380": "\u7136\u540e", "381": "\u4e5f\u8bb8", "382": "\u60c5\u51b5", "383": "\u4f60\u4eec", "384": "\u8bc4\u4ef7", "385": "\u4f5c\u4e3a", "386": "\u8f83", "387": "\u8d70", "388": "\u8f6f\u4ef6", "389": "/", "390": "\u7531\u4e8e", "391": "\u5e8a", "392": "\u8fd9\u4e9b", "393": "\u5f88\u65b9\u4fbf", "394": "\u9664\u4e86", "395": "\u4e0d\u5982", "396": "\u8d27", "397": "\u5ba2\u623f", "398": "\u672c\u4eba", "399": "\u539f\u56e0", "400": "\u6216", "401": "\u6c34", "402": "\u5f53\u7136", "403": "\u51e0\u4e2a", "404": "\u4e0d\u5230", "405": "\u63a5\u53d7", "406": "\u9694\u97f3", "407": "\u7b14\u8bb0\u672c", "408": "\u70ed", "409": "\u2014", "410": "\u672c\u672c", "411": "\u4e00\u79cd", "412": "\u603b", "413": "\u53cd\u9988", "414": "\u6b64\u4e66", "415": "\u5b66\u4e60", "416": "\u8fd8\u8981", "417": "\u957f", "418": "\u5168", "419": "\u4e00\u5929", "420": "\u5f71\u54cd", "421": "\u5473\u9053", "422": "\u4e3a\u4e86", "423": "\u8fd0\u884c", "424": "\u8bf7", "425": "\u60f3\u8c61", "426": "\u4f4e", "427": "\u518d\u6b21", "428": "5", "429": "\u4efb\u4f55", "430": "\u786c\u4ef6", "431": "\u4e0d\u77e5", "432": "\u4e00\u6b21", "433": "\u7406\u89e3", "434": "\u6253\u5f00", "435": "\u5546\u52a1", "436": "\u4e8b\u60c5", "437": "\u5b9a", "438": "\u90a3\u4e9b", "439": "\u5730\u7406", "440": "\u653e", "441": "\u5f3a", "442": "\u7b2c\u4e8c\u5929", "443": "\u603b\u4f53", "444": "\u5411", "445": "\u5982\u4f55", "446": "\u5386\u53f2", "447": "\u8fdb", "448": "\u8bf4\u660e", "449": "\u5f53\u65f6", "450": "\u53ca", "451": "\u522b\u4eba", "452": "\u574f", "453": "\u8001", "454": "\u8fd8\u597d", "455": "\u627e\u5230", "456": "\u8f66", "457": "\u5982\u6b64", "458": "\u5982", "459": "\u6c34\u5e73", "460": "\u7b80\u76f4", "461": "\u662f\u4e0d\u662f", "462": "\u8ba4\u4e3a", "463": "\u9001\u8d27", "464": "\u6216\u8005", "465": ":", "466": "\u5173\u4e8e", "467": "\u4e0d\u540c", "468": "\u82b1", "469": "\u6574\u4f53", "470": "\u6559\u80b2", "471": "xp", "472": "\u5408\u7406", "473": "\u552f\u4e00", "474": "\u603b\u4e4b", "475": "\u4e8e\u662f", "476": "\u95e8\u53e3", "477": "\u4e5f\u4e0d", "478": "\u8fd8\u4f1a", "479": "\u5435", "480": "\u975e\u5e38\u597d", "481": "\u672c\u4e66", "482": "\u603b\u662f", "483": "\u4e0d\u8db3", "484": "\u8d2d\u4e70", "485": "\u7edd\u5bf9", "486": "\u91cd", "487": "\u663e\u5361", "488": ";", "489": "\u4e24\u4e2a", "490": "\u540c\u4e8b", "491": "\u670d\u52a1\u6001\u5ea6", "492": "\u4e8e", "493": "\u6309", "494": "\u8fd8\u6ca1\u6709", "495": "\u7ecf\u5386", "496": "\u5347\u7ea7", "497": "\u8d77", "498": "\u8fdc", "499": "\u5176\u4e2d", "500": "\u5ba2\u6237", "501": "\u5468\u56f4", "502": "\u5b57", "503": "\u5ba2\u670d", "504": "\u540c\u65f6", "505": "\u4ee5\u4e3a", "506": "\u4e00\u5bb6", "507": "\u6536", "508": "\u4e0b\u53bb", "509": "\u4e09\u661f", "510": "\u9f20\u6807", "511": "\u9047\u5230", "512": "\u7535\u68af", "513": "\u5bb6", "514": "\u4e00\u770b", "515": "\u6b64", "516": "\u89e3\u51b3", "517": "\u641e", "518": "\u70ed\u60c5", "519": "\u8ba2\u5355", "520": "\u51e0\u4e4e", "521": "\"", "522": "\u624d\u80fd", "523": "\u80fd\u591f", "524": "\u597d\u4e66", "525": "\u5361", "526": "\u770b\u7740", "527": "\u5566", "528": "\u8c6a\u534e", "529": "\u8c01", "530": "\u8bed\u8a00", "531": "\u4e00\u8d77", "532": "\u623f\u4ef7", "533": "\u5de6\u53f3", "534": "\u56db\u661f", "535": "\u592a\u591a", "536": "\u4e0d\u5c11", "537": "VISTA", "538": "\u6444\u50cf\u5934", "539": "\u4eca\u5929", "540": "\u5916", "541": "\u7535\u89c6", "542": "\u8054\u7cfb", "543": "\u51fa\u73b0", "544": "\u4e0d\u591f", "545": "\u4e5f\u6709", "546": "\u5c0f\u59d0", "547": "\u53ea\u8981", "548": "\u6bcf\u5929", "549": "\u660e\u663e", "550": "\u4e30\u5bcc", "551": "\u90c1\u95f7", "552": "\u8003\u8651", "553": "\u5305", "554": "\u5bb9\u6613", "555": "\u6536\u8d39", "556": "\u4f30\u8ba1", "557": "\u5b8c", "558": "\u534a\u5929", "559": "\u4e3b\u8981", "560": "\u5176", "561": "\u4e8b", "562": "vista", "563": "\u63d0\u51fa", "564": "\u56de", "565": "\u4e60\u60ef", "566": "\uff5e", "567": "\u771f\u6b63", "568": "\u8fc7\u6765", "569": "\u8fd9\u672c", "570": "\u5e76\u4e14", "571": "\u8fdb\u884c", "572": "\u6bcf", "573": "\u8bba", "574": "\u4e0d\u7528", "575": "\u4e14", "576": "\u8fc7\u53bb", "577": "\u5e97", "578": "\u9644\u8fd1", "579": "\u7f3a\u70b9", "580": "\u5f88\u6f02\u4eae", "581": "\u5b89\u6392", "582": "\u5206\u533a", "583": "\u5dee\u4e0d\u591a", "584": "\u4ef7\u94b1", "585": "\u810f", "586": "\u6b63\u5e38", "587": "\u4f5c\u54c1", "588": "\u66f4\u597d", "589": "\u6240\u8c13", "590": "\u8bfb\u8005", "591": "\u51c6\u5907", "592": "\u65e0\u7ebf", "593": "\u5904\u7406", "594": "\u7cfb\u5217", "595": "\u8d85", "596": "\u9996\u5148", "597": "\u90a3\u6837", "598": "\u7b97\u662f", "599": "\u591f", "600": "\u80af\u5b9a", "601": "\u6837\u5b50", "602": "\u4e00\u5957", "603": "\u697c\u5c42", "604": "\u544a\u77e5", "605": "\u996d\u5e97", "606": "\u95e8", "607": "\u8c61", "608": "\u7ed3\u5e10", "609": "\u90e8\u5206", "610": "\u5e2e\u52a9", "611": "\u4e2d\u5fc3", "612": "\u8212\u670d", "613": "\u610f\u89c1", "614": "\u7ba1\u7406", "615": "\u4ee4\u4eba", "616": "\u5438\u5f15", "617": "\u7a97\u6237", "618": "\u5403\u996d", "619": "\u9884\u8ba2", "620": "\u5b9e\u9645", "621": "\u5149\u76d8", "622": "\u77e5\u8bc6", "623": "\u5149\u9a71", "624": "\u6307\u7eb9", "625": "\u56db\u661f\u7ea7", "626": "\u4e13\u4e1a", "627": "\u5305\u88c5", "628": "\u8fd8\u884c", "629": "\u4ef7\u4f4d", "630": "\u529f\u80fd", "631": "\u566a\u97f3", "632": "\u6bcf\u6b21", "633": "\u7236\u6bcd", "634": "\u6e05\u695a", "635": "\u4e0d\u5927", "636": "\u5bbd\u5e26", "637": "\u8bbe\u5907", "638": "\u5341\u5206", "639": "\u54c1\u724c", "640": "\u4e0d\u6562", "641": "\u5f88\u9ad8", "642": "\u5c0f\u5b69", "643": "\u5f3a\u70c8", "644": "\u54e6", "645": "\u7ffb", "646": "\u597d\u770b", "647": "\u90a3\u79cd", "648": "\u662f\u5426", "649": "\u5b66", "650": "\u8fdb\u53bb", "651": "\u5916\u9762", "652": "\u5370\u5237", "653": "\u5f88\u4e00\u822c", "654": "\u6210\u529f", "655": "\u73a9", "656": "\u8dd1", "657": "\u4f18\u70b9", "658": "\u65b9\u6cd5", "659": "\u661f", "660": "\u7761", "661": "\u624b\u611f", "662": "\u5f00\u673a", "663": "\u53d1", "664": "\u65b9\u5f0f", "665": "\u6574\u4e2a", "666": "\u5c31\u597d", "667": "\u652f\u6301", "668": "\u5988\u5988", "669": "\u4e0b\u6765", "670": "\u91cd\u65b0", "671": "\u5730\u6bef", "672": "\u9999\u6e2f", "673": "\u9a6c\u4e0a", "674": "\u7231\u60c5", "675": "\u7684\u786e", "676": "\u5fc3\u60c5", "677": "\u666e\u901a", "678": "\u6539", "679": "\u4e00\u5f20", "680": "\u611f\u52a8", "681": "\u4f3c\u4e4e", "682": "\u7ec8\u4e8e", "683": "\u76ee\u524d", "684": "\u7ecf\u7406", "685": "\u8bb8\u591a", "686": "\u90fd\u4f1a", "687": "\u540e\u9762", "688": "\u671f\u5f85", "689": "\u7ecf\u5e38", "690": "\u6bd4\u5982", "691": "\u4e0b\u8f7d", "692": "\u66f4\u591a", "693": "\u80fd\u529b", "694": "\u76f8\u4fe1", "695": "\u4eba\u7269", "696": "\u5370\u8c61", "697": "\u516c\u53f8", "698": "\u663e\u793a", "699": "\u6ca1\u60f3\u5230", "700": "\u544a\u8bc9", "701": "\u6d17", "702": "\u503c", "703": "\u4e00\u5207", "704": "\u540c", "705": "\u5f53\u5f53\u7f51", "706": "\u4e00\u4e2a\u4eba", "707": "\u6389", "708": "\u597d\u591a", "709": "\u4eba\u751f", "710": "\u4e4b\u524d", "711": "\u751a\u81f3", "712": "\u5f04", "713": "\u8bfb\u5b8c", "714": "\u6df1", "715": "\u5957\u4e66", "716": "\u91cd\u8981", "717": "\u504f", "718": "\u673a\u573a", "719": "\u5f97\u5230", "720": "\u624b", "721": "\u89e3\u91ca", "722": "\u53ef\u60dc", "723": "\u63d0", "724": "\u611f\u53d7", "725": "\u4e0d\u884c", "726": "\u6ce8\u610f", "727": "\u7a0d", "728": "\u5927\u6982", "729": "\u6bdb\u5dfe", "730": "\u8fd9\u6b3e", "731": "\u56e0", "732": "\u793e\u4f1a", "733": "\u662f\u56e0\u4e3a", "734": "\u6295\u8bc9", "735": "\u600e\u4e48\u6837", "736": "\u98ce\u6247", "737": "\u770b\u6765", "738": "\u5904", "739": "\u9760", "740": "\u66f4\u52a0", "741": "\u70ed\u6c34", "742": "\u5b9e\u7528", "743": "\u4ee5\u53ca", "744": "\u4e16\u754c", "745": "\u8fc7\u7a0b", "746": "\u611f\u5230", "747": "\u5783\u573e", "748": "\u81ea\u5e26", "749": "\u5f88\u8212\u670d", "750": "\u7f51\u7edc", "751": "\u7761\u89c9", "752": "\u8d85\u7ea7", "753": "\u6b63\u5728", "754": "\u6539\u8fdb", "755": "\u53d1\u8d27", "756": "\u6709\u4eba", "757": "\u6e29\u5ea6", "758": "\u5b8c\u7f8e", "759": "\u5750", "760": "\u7f51\u5361", "761": "\u4f4f\u5728", "762": "\u4e0a\u9762", "763": "\u770b\u8d77\u6765", "764": "6", "765": "\u9884\u88c5", "766": "\u5957", "767": "\u9009", "768": "\u81f3\u5c11", "769": "\u82f1\u8bed", "770": "\u534e\u7855", "771": "\u4e94\u661f\u7ea7", "772": "\u6d6a\u8d39", "773": "\u4e66\u7c4d", "774": "\u5b89\u9759", "775": "\u6d77\u666f", "776": "\u603b\u53f0", "777": "\u6e38\u620f", "778": "\u6d17\u6fa1", "779": "\u540e\u6094", "780": "\u89c2\u70b9", "781": "\u672a", "782": "\u5343\u4e07", "783": "\u6587\u7ae0", "784": "\u6709\u95ee\u9898", "785": "\u5458\u5de5", "786": "\u884c\u674e", "787": "\u6bcf\u4e2a", "788": "\u5174\u8da3", "789": "\u5355", "790": "\u5f88\u96be", "791": "\u54c1\u79cd", "792": "\u51b7", "793": "\u6587\u5316", "794": "\u536b\u751f", "795": "\u5973", "796": "\u6700\u5927", "797": "\u529e", "798": "\u54c8\u54c8", "799": "\u5356", "800": "\u540c\u6837", "801": "\u51b3\u5b9a", "802": "\u6700\u5dee", "803": "\u600e\u6837", "804": "\u800c\u662f", "805": "\u5012\u662f", "806": "\u653e\u5728", "807": "\u6bd5\u7adf", "808": "\u9f50\u5168", "809": "\u53d1\u751f", "810": "\u7ec6\u8282", "811": "\u8001\u5e08", "812": "\u7a0d\u5fae", "813": "\u4e0d\u4e00\u6837", "814": "\u5973\u4eba", "815": "\u5404\u79cd", "816": "\u53ea\u597d", "817": "\u51fa\u53bb", "818": "\u706b\u8f66\u7ad9", "819": "\u633a\u597d", "820": "\u7406\u8bba", "821": "\u8d8a", "822": "\u70c2", "823": "\u62db\u5f85\u6240", "824": "\u98ce\u683c", "825": "\u673a\u5b50", "826": "\u56fe\u7247", "827": "\u90a3\u91cc", "828": "\u53e6", "829": "\u597d\u597d", "830": "\u673a\u4f1a", "831": "\u8bbe\u7f6e", "832": "\u51fa\u5dee", "833": "\u591a\u5c11", "834": "\u60c5\u8282", "835": "\u9694\u58c1", "836": "\u9053\u7406", "837": "\u5206", "838": "\u65e9\u4e0a", "839": "\u529e\u7406", "840": "\u5355\u8bcd", "841": "\u7f51\u7ad9", "842": "\u4ee5\u4e0a", "843": "\u665a", "844": "\u8054\u60f3", "845": "\u65c1\u8fb9", "846": "\u610f\u601d", "847": "\u6210\u957f", "848": "\u661f\u7ea7", "849": "\u63d0\u9ad8", "850": "\u6c34\u679c", "851": "\u884c\u653f", "852": "\u5c31\u50cf", "853": "\u84dd\u7259", "854": "\u8c22\u8c22", "855": "\u4e0a\u6d77", "856": "\u4e94\u661f", "857": "\u54ea", "858": "\u884c", "859": "\u753b\u9762", "860": "\u6253\u8f66", "861": "\u533a", "862": "\u7ffb\u8bd1", "863": "\u5408\u9002", "864": "\u6ee1", "865": "\u76f8\u5bf9", "866": "\u4e0d\u7ba1", "867": "\u670d\u52a1\u751f", "868": "\u4e3b\u52a8", "869": "\u4e00\u95f4", "870": "\u5fc3\u91cc", "871": "\u5176\u5b83", "872": "\u7ecf\u5178", "873": "\u86ee", "874": "\u7248\u672c", "875": "\u989c\u8272", "876": "\u4e8c", "877": "\u8212\u9002", "878": "\u5916\u58f3", "879": "\u4e0d\u8212\u670d", "880": "\u63a5\u53e3", "881": "\u524d\u9762", "882": "\u7ee7\u7eed", "883": "\u544a\u8bc9\u6211", "884": "\u4e48", "885": "\u4f7f", "886": "\u5012", "887": "\u51fa\u79df\u8f66", "888": "\u5e8a\u5355", "889": "\u53d1\u70ed", "890": "\u6211\u81ea\u5df1", "891": "\u6e29\u99a8", "892": "\u8f7b", "893": "\u4e24\u5929", "894": "\u5317\u4eac", "895": "\u672c\u8eab", "896": "\u5c31\u7b97", "897": "\u5fc5\u987b", "898": "\u5c31\u4f1a", "899": "\u5468\u8fb9", "900": "\u771f\u5b9e", "901": "\u7535\u6e90", "902": "\u6709\u65f6", "903": "\u603b\u7684\u6765\u8bf4", "904": "\u4e0d\u723d", "905": "\u610f\u4e49", "906": "\u4fe1\u7528\u5361", "907": "\u6df1\u523b", "908": "\u57fa\u672c\u4e0a", "909": "\u804c\u573a", "910": "\u5e76\u4e0d", "911": "\u4e00\u5b9a\u8981", "912": "\u51e0\u6b21", "913": "\u767d\u8272", "914": "CPU", "915": "\u4e25\u91cd", "916": "\u5bb6\u957f", "917": "\u89e6\u6478\u677f", "918": "\u4e00\u8fb9", "919": "\u53cd\u6b63", "920": "\u5565", "921": "\u9519\u8bef", "922": "\u8ddd\u79bb", "923": "1G", "924": "\u660e\u767d", "925": "\u663e\u5f97", "926": "\u663e", "927": "\u8d70\u5eca", "928": "\u786e\u8ba4", "929": "\u7535\u5f71", "930": "\u63a5", "931": "\u914d", "932": "\u9001\u7ed9", "933": "\u5404", "934": "\u6761\u4ef6", "935": "\u6bd4\u8f83\u597d", "936": "\u5230\u4f4d", "937": "\u79bb\u5f00", "938": "\u597d\u8c61", "939": "\u6539\u53d8", "940": "\u4e00\u665a", "941": "\u603b\u4f53\u6765\u8bf4", "942": ">", "943": "\u53f0", "944": "\u96be\u9053", "945": "\u624b\u7eed", "946": "\u53cd\u6620", "947": "\u6ee1\u8db3", "948": "\u8868\u793a", "949": "\u601d\u60f3", "950": "\u7537\u4eba", "951": "\u5fc3", "952": "\u67e5", "953": "\u9057\u61be", "954": "\u5168\u90e8", "955": "\u5426\u5219", "956": "\u6655", "957": "\u88ab\u5b50", "958": "\u54ea\u91cc", "959": "\u7834", "960": "Vista", "961": "\u4e4b\u95f4", "962": "\u8fdb\u5165", "963": "\u5c31\u80fd", "964": "\u671f\u95f4", "965": "\u65e9", "966": "\u73b0\u5b9e", "967": "\u610f\u8bc6", "968": "\u4e45", "969": "\u7537", "970": "\u751f\u547d", "971": "\u5230\u8fbe", "972": "\u4e00\u904d", "973": "\u6015", "974": "\u9001\u5230", "975": "\u4e00\u80a1", "976": "\u5468\u5230", "977": "\u56fd\u5185", "978": "\u6765\u770b", "979": "\u63a5\u5f85", "980": "\u7eed\u822a", "981": "\u8d85\u503c", "982": "*", "983": "\u4ef7\u503c", "984": "\u6d74\u5ba4", "985": "\u540d\u5b57", "986": "\u7ad9", "987": "\u627e\u4e0d\u5230", "988": "\u6000\u7591", "989": "\u800c\u5df2", "990": "\u5c5e\u4e8e", "991": "\u56de\u7b54", "992": "\u575a\u6301", "993": "\u7136", "994": "\u5957\u623f", "995": "\u51fa\u95e8", "996": "\u7cbe\u81f4", "997": "\u5fc3\u7406", "998": "\u96be", "999": "\u90a3\u4e48\u591a", "1000": "\u6302", "1001": "\u53d1\u7968", "1002": "\u4eab\u53d7", "1003": "\u8fd9\u70b9", "1004": "\u9519", "1005": "\u7f8e", "1006": "\u542c\u8bf4", "1007": "\u53cd\u5e94", "1008": "\u89d2\u5ea6", "1009": "\u83dc", "1010": "\u539a", "1011": "\u5148\u751f", "1012": "\u6709\u8da3", "1013": "\u8d5e", "1014": "\u5173\u7cfb", "1015": "\u8ba4\u8bc6", "1016": "\u56fe\u753b", "1017": "\u987a\u5229", "1018": "\u9a6c\u6876", "1019": "\u53ca\u65f6", "1020": "\u4e71", "1021": "\u5f88\u4e45", "1022": "USB", "1023": "\u8fd8\u5728", "1024": "\u53e3", "1025": "\u66fe\u7ecf", "1026": "\u975e", "1027": "\u623f\u8d39", "1028": "\u6700\u8fd1", "1029": "\u5bf9\u9762", "1030": "\u8ba4\u771f", "1031": "\u4f11\u606f", "1032": "\u5f88\u5c11", "1033": "\u6d41\u7545", "1034": "\u4e0b\u9762", "1035": "\u968f\u4fbf", "1036": "\u64cd\u4f5c", "1037": "\u4e0d\u65ad", "1038": "\u7ed3\u5c40", "1039": "\u5728\u4e00\u8d77", "1040": "\u8d2d\u7269", "1041": "\u95e8\u7ae5", "1042": "\u5b8c\u7f8e\u5c4f", "1043": "\u8fd8\u80fd", "1044": "\u8bb0\u5f97", "1045": "\u7559\u4e0b", "1046": "\u81ea\u6211", "1047": "\u63a7\u5236", "1048": "\u505c", "1049": "\u5feb\u4e50", "1050": "\u91cd\u91cf", "1051": "\u6210\u4e3a", "1052": "\u82f1\u6587", "1053": "\u9001\u6765", "1054": "\u4eae\u70b9", "1055": "\u4e0a\u5f53", "1056": "\u68d2", "1057": "\u542f\u52a8", "1058": "\u5e78\u798f", "1059": "2G", "1060": "\u52aa\u529b", "1061": "\u5feb\u9012", "1062": "\u5929", "1063": "\u4e0d\u4ec5", "1064": "\u5c0f\u5de7", "1065": "\u4e00\u4f4d", "1066": "\u8fbe\u5230", "1067": "\u5f88\u6ee1\u610f", "1068": "\u6b7b", "1069": "\u4e0d\u4f4f", "1070": "\u81f3\u4e8e", "1071": "\u613f\u610f", "1072": "\u5404\u4f4d", "1073": "\u8bd5", "1074": "\u6ca1\u6cd5", "1075": "\u591f\u7528", "1076": "\u6309\u7167", "1077": "\u5982\u5bb6", "1078": "\u6709\u6240", "1079": "\u641e\u5b9a", "1080": "\u987e\u5ba2", "1081": "\u6574", "1082": "<", "1083": "\u5927\u5c0f", "1084": "\u6781\u5dee", "1085": "\u4fe1\u606f", "1086": "\u7ecf\u9a8c", "1087": "\u6863\u6b21", "1088": "\u9a6c\u8def", "1089": "\u6d74\u7f38", "1090": "\u56e0\u6b64", "1091": "\u5e73\u65f6", "1092": "\u542c\u5230", "1093": "\u7279\u8272", "1094": "\u4e3b\u89d2", "1095": "\u6ca1\u529e\u6cd5", "1096": "\u7ecf\u8fc7", "1097": "\u78b0\u5230", "1098": "\u4e09", "1099": "\u7b11", "1100": "\u76f8\u5173", "1101": "\u5065\u5eb7", "1102": "\u7a7a\u95f4", "1103": "\u6b63\u7248", "1104": "\u9709\u5473", "1105": "\u5173", "1106": "\u753b", "1107": "\u62c5\u5fc3", "1108": "\u9ed1", "1109": "\u81ea\u52a9", "1110": "\u529e\u6cd5", "1111": "\u5e02\u533a", "1112": "\uff0d", "1113": "\u4ed4\u7ec6", "1114": "\u5373\u4f7f", "1115": "\u7cbe\u7f8e", "1116": "\u773c\u775b", "1117": "\u7814\u7a76", "1118": "\u4ea7\u54c1", "1119": "\u4eba\u5bb6", "1120": "\u8f7b\u677e", "1121": "\u4e00\u53e3\u6c14", "1122": "\u5f53\u5730", "1123": "\u53d6\u6d88", "1124": "\u7559", "1125": "\u65f6\u5c1a", "1126": "\u60f3\u8981", "1127": "\u6b63", "1128": "\u54cd", "1129": "\u679c\u7136", "1130": "\u8be2\u95ee", "1131": "\u5f88\u5931\u671b", "1132": "\u8db3\u591f", "1133": "\u60f3\u5230", "1134": "\u5230\u5e95", "1135": "\u8eab\u8fb9", "1136": "\u6e05\u6670", "1137": "\u952e", "1138": "\u8bfb\u4e66", "1139": "\u770b\u4e66", "1140": "\u6253\u626b", "1141": "\u4e00\u534a", "1142": "\u5b9d\u8d35", "1143": "\u5237", "1144": "\u611f\u5174\u8da3", "1145": "\u5c0f\u670b\u53cb", "1146": "\u6574\u6d01", "1147": "\u65c5\u6e38", "1148": "\u6253\u7b97", "1149": "in", "1150": "\u611f\u60c5", "1151": "\u8bf4\u8bdd", "1152": "\u6536\u85cf", "1153": "\u6781", "1154": "\u53f8\u673a", "1155": "\u8be6\u7ec6", "1156": "\u53d8\u6210", "1157": "\u76f8\u6bd4", "1158": "\u5145\u6ee1", "1159": "\u706f", "1160": "\u723d", "1161": "\u559d", "1162": "\u6807\u95f4", "1163": "\u53ef\u7231", "1164": "\u4e00\u53e5", "1165": "\u6d17\u624b\u95f4", "1166": "\u8863\u670d", "1167": "\u6076\u5fc3", "1168": "\u8d34", "1169": "\u6ca1\u95ee\u9898", "1170": "\u53d1\u70ed\u91cf", "1171": "\u5f53\u5929", "1172": "\u534a", "1173": "\u8272\u5f69", "1174": "\u91cd\u88c5", "1175": "\u70eb", "1176": "\u5237\u5361", "1177": "\u63d0\u9192", "1178": "\u7cbe\u5f69", "1179": "\u4e8e\u4e39", "1180": "\u5f88\u5bb9\u6613", "1181": "\u8f6c", "1182": "\u7b49\u7b49", "1183": "\u51e0\u5929", "1184": "\u5e26\u6765", "1185": "\u5509", "1186": "\u5149\u4e34", "1187": "\u63cf\u8ff0", "1188": "\u660e\u660e", "1189": "\u63cf\u5199", "1190": "\u751f\u52a8", "1191": "\u4e0a\u7f51\u672c", "1192": "\u505c\u8f66\u573a", "1193": "\u8981\u597d", "1194": "\u7b2c\u4e00", "1195": "\u9762\u5bf9", "1196": "\u534a\u591c", "1197": "\u6d3b\u52a8", "1198": "\u6dcb\u6d74", "1199": "\u5b58\u5728", "1200": "\u8d60\u9001", "1201": "\u505c\u8f66", "1202": "\u51e0\u9875", "1203": "\u4e66\u91cc", "1204": "\u4fbf\u5229", "1205": "\u5c31\u8981", "1206": "check", "1207": "\u800c\u8a00", "1208": "\u60f3\u6cd5", "1209": "\u6587\u5b66", "1210": "\u5f88\u591a\u4eba", "1211": "\u5374\u662f", "1212": "\u7b80\u964b", "1213": "\u9000", "1214": "\u5e2e\u5fd9", "1215": "\u5173\u6ce8", "1216": "\u9ed1\u8272", "1217": "\u7cdf\u7cd5", "1218": "\u6b49\u610f", "1219": "\u5dee\u70b9", "1220": "\u56de\u590d", "1221": "\u6709\u5f88\u591a", "1222": "\u6b63\u597d", "1223": "\u5730\u70b9", "1224": "\u4f5c", "1225": "7", "1226": "10\u5143", "1227": "\u62c9", "1228": "2\u4e2a", "1229": "\u561b", "1230": "\u8fd9\u5957\u4e66", "1231": "\u4f53\u4f1a", "1232": "\u786c", "1233": "\u5b9e\u60e0", "1234": "\u8d39", "1235": "\u7a81\u7136", "1236": "\u4e00\u4efd", "1237": "\u601d\u8003", "1238": "\u57ce\u5e02", "1239": "\u5927\u4eba", "1240": "\u65e5\u672c", "1241": "\u62e5\u6709", "1242": "\u8fd9\u4e48\u591a", "1243": "\u5947\u602a", "1244": "\u767b\u8bb0", "1245": "\u9752\u5c9b", "1246": "\u4e00\u6761", "1247": "\u5730\u94c1", "1248": "\u4e24\u672c", "1249": "\u4e00\u6bb5", "1250": "\u8eab\u4f53", "1251": "\u6d88\u8d39", "1252": "\u7a33\u5b9a", "1253": "\u5f20\u7231\u73b2", "1254": "\u697c\u4e0b", "1255": "_", "1256": "\u5b98\u7f51", "1257": "\u7c7b\u4f3c", "1258": "\u8d8a\u6765\u8d8a", "1259": "\u7eb8", "1260": "\u9000\u8d27", "1261": "\u5f88\u5e72\u51c0", "1262": "\u4e0b\u5355", "1263": "\u5973\u6027", "1264": "\u8def", "1265": "\u589e\u52a0", "1266": "\u7ed3\u8d26", "1267": "\u8868\u8fbe", "1268": "\u8fc7\u4e8e", "1269": "\u6587\u7b14", "1270": "\u81ea\u7136", "1271": "\u5e02\u4e2d\u5fc3", "1272": "\u4e2d\u95f4", "1273": "\u4e2d\u5348", "1274": "\u5f00\u5fc3", "1275": "\u4e00\u70b9\u70b9", "1276": "\u5305\u62ec", "1277": "\u6c34\u51c6", "1278": "\u9762\u79ef", "1279": "\u4e0d\u503c", "1280": "\u8f83\u9ad8", "1281": "\u5c4f", "1282": "\u89c1\u8fc7", "1283": "\u521a\u521a", "1284": "\u91cd\u89c6", "1285": "\u6162\u6162", "1286": "\u3000", "1287": "\u98de\u673a", "1288": "\u624d\u662f", "1289": "\u4e0a\u6765", "1290": "\u8f83\u5927", "1291": "\u5973\u5b69\u5b50", "1292": "\u5c3d\u7ba1", "1293": "\u56de\u5bb6", "1294": "\u96be\u4ee5", "1295": "\u5173\u952e", "1296": "\u4e00\u751f", "1297": "\u5b66\u751f", "1298": "\u9762", "1299": "\u5979\u4eec", "1300": "\u901a\u77e5", "1301": "\u636e\u8bf4", "1302": "\u4ea7\u751f", "1303": "\u4f9d\u7136", "1304": "\u4e00\u4f1a", "1305": "\u597d\u5728", "1306": "\u4f3c", "1307": "\u6781\u5176", "1308": "\u8d23\u4efb", "1309": "9", "1310": "\u5c01\u9762", "1311": "\u4ee4", "1312": "\u540c\u5b66", "1313": "\u4eba\u6027\u5316", "1314": "\u964d\u4ef7", "1315": "\u7f8e\u597d", "1316": "\u9910\u996e", "1317": "\u529e\u516c", "1318": "\u89c1", "1319": "\u52c9\u5f3a", "1320": "\u5fc5\u8981", "1321": "\u9760\u8fd1", "1322": "\u5bbd\u655e", "1323": "\u63d0\u524d", "1324": "\u5bb3", "1325": "\u4e0d\u4fbf", "1326": "\u6709\u5173", "1327": "\u56de\u53bb", "1328": "\u63a5\u89e6", "1329": "\u5185\u90e8", "1330": "\u53ef\u4ee5\u8bf4", "1331": "\u5728\u8fd9\u91cc", "1332": "\u5177\u4f53", "1333": "\u7b49\u5f85", "1334": "\u6b22\u8fce", "1335": "\u7a0b\u5ea6", "1336": "\u7406\u60f3", "1337": "\u4ed8", "1338": "\u51e0\u672c", "1339": "\u5bb6\u5ead", "1340": "\u5e7f\u544a", "1341": "\u5395\u6240", "1342": "\u61c2", "1343": "\u6ca1\u6709\u4e86", "1344": "\u6362\u8d27", "1345": "\u4e0d\u518d", "1346": "\u6b65\u884c", "1347": "\u6536\u83b7", "1348": "\u5c0f\u5b69\u5b50", "1349": "\u4e00\u90e8", "1350": "\u867d", "1351": "\u770b\u89c1", "1352": "\u4e0b\u5348", "1353": "\u64cd\u4f5c\u7cfb\u7edf", "1354": "\u6bcf\u4e2a\u4eba", "1355": "\u7eb8\u5f20", "1356": "\u6548\u7387", "1357": "\u7b2c\u4e8c\u6b21", "1358": "\u4ee5\u4e0b", "1359": "\u5bb6\u5177", "1360": "\u89c1\u5230", "1361": "\u4e0d\u5f97\u4e0d", "1362": "\u964d", "1363": "\u957f\u65f6\u95f4", "1364": "\u5b8c\u6210", "1365": "\u4e4b\u7c7b", "1366": "\u724c\u5b50", "1367": "\u6a21\u5f0f", "1368": "\u81ea", "1369": "\u603b\u7ed3", "1370": "\u90a3\u5929", "1371": "\u4e0d\u53ef", "1372": "\u9053", "1373": "\u6562", "1374": "\u65e0\u5948", "1375": "\u7279\u4ef7", "1376": "\u7406\u7531", "1377": "\u76d8", "1378": "\u5bbd", "1379": "\u66f4\u6362", "1380": "\u5fcd\u53d7", "1381": "\u4e70\u5230", "1382": "\u7ed3\u675f", "1383": "\u89c4\u5b9a", "1384": "\u73b0\u8c61", "1385": "\u591a\u4e48", "1386": "\u7d20\u8d28", "1387": "\u7ecf\u6d4e", "1388": "\u7f8e\u56fd", "1389": "\u5bfc\u81f4", "1390": "\u603b\u4f53\u611f\u89c9", "1391": "\u4e24\u6b21", "1392": "\u5e76\u6ca1\u6709", "1393": "\u53d1\u5c55", "1394": "\u6298\u817e", "1395": "\u60f3\u60f3", "1396": "\u4e0a\u53bb", "1397": "\u8868\u9762", "1398": "\u719f\u6089", "1399": "\u6b23\u8d4f", "1400": "\u5fd8", "1401": "LED", "1402": "\u7248", "1403": "\u884c\u4e3a", "1404": "`", "1405": "\u6362\u623f", "1406": "\u54ce", "1407": "\u4e09\u661f\u7ea7", "1408": "\u81ea\u63d0", "1409": "\u4e0a\u6b21", "1410": "\u4e3b\u4eba\u516c", "1411": "\u643a\u5e26", "1412": "\u6c14\u6124", "1413": "\u53ef\u601c", "1414": "\u4ec5", "1415": "\u4fdd\u6301", "1416": "\u6700\u559c\u6b22", "1417": "\u7528\u54c1", "1418": "\u5b89\u5168", "1419": "\u51b2", "1420": "\u5f80", "1421": "\u505a\u5230", "1422": "\u88c5\u4e0a", "1423": "\u5408\u4f5c", "1424": "\u73a9\u6e38\u620f", "1425": "\u9020\u6210", "1426": "HP", "1427": "\u5730\u6bb5", "1428": "\u4e0d\u660e\u767d", "1429": "\u590d\u6742", "1430": "\u8bba\u8bed", "1431": "\u4ea4\u6d89", "1432": "\u6539\u5584", "1433": "\u5404\u65b9\u9762", "1434": "BIOS", "1435": "\u56fd\u5bb6", "1436": "\u9a9a\u6270", "1437": "\u6c9f\u901a", "1438": "\u5f00\u95e8", "1439": "\u4e2d\u533b", "1440": "\u5f20", "1441": "\u5ba3\u4f20", "1442": "\u5219", "1443": "\u53d7", "1444": "\u5e7d\u9ed8", "1445": "\u8fb9", "1446": "\u8ffd\u6c42", "1447": "\u52a0\u4e0a", "1448": "\u5230\u624b", "1449": "\u624b\u673a", "1450": "\u6709\u6ca1\u6709", "1451": "4\u661f", "1452": "\u8ba2\u623f", "1453": "\u60e0\u666e", "1454": "\u4f18\u52bf", "1455": "\u4e66\u4e0a", "1456": "\u53c2\u8003", "1457": "\u6076\u52a3", "1458": "\u5f85\u673a", "1459": "\u6d4b\u8bd5", "1460": "\u6709\u5f85", "1461": "\u6628\u5929", "1462": "\u591a\u6b21", "1463": "\u7ed9\u4e88", "1464": "\u4eba\u4eec", "1465": "\u8d76", "1466": "\u8d85\u5e02", "1467": "^", "1468": "\u62d6\u978b", "1469": "\u4f4f\u5bbf", "1470": "\u5e94", "1471": "\u8010\u5fc3", "1472": "\u5e74\u9f84", "1473": "\u8d85\u8fc7", "1474": "\u6700\u7ec8", "1475": "\u79cd", "1476": "\u6062\u590d", "1477": "\u5927\u7ea6", "1478": "\u53d6", "1479": "\u8bf4\u5b9e\u8bdd", "1480": "\u7269\u6d41", "1481": "\u5f62\u8c61", "1482": "\u7528\u6237", "1483": "\u6700\u591a", "1484": "\u6839\u636e", "1485": "\u56fe", "1486": "\u56fe\u4e66", "1487": "\u9053\u6b49", "1488": "\u5934", "1489": "\u6559", "1490": "\u7cbe\u795e", "1491": "\u53d8\u5f97", "1492": "\u6ca1\u5f97", "1493": "\u4fbf", "1494": "\u76d7\u7248", "1495": "\u91cd\u590d", "1496": "\u6280\u672f", "1497": "\u8fd9\u90e8", "1498": "\u653e\u5fc3", "1499": "\u4e09\u4e2a", "1500": "\u4fdd\u8bc1", "1501": "\u9700", "1502": "\u552e\u540e", "1503": "\u8c03", "1504": "\u4e3b", "1505": "\u56de\u5230", "1506": "\u63d0\u5230", "1507": "\u5c0a\u656c", "1508": "\u5185\u5fc3", "1509": "\u75db\u82e6", "1510": "\u6709\u65f6\u5019", "1511": "\u54c1\u8d28", "1512": "\u54ed", "1513": "\u8868\u73b0", "1514": "\u5fc3\u4e2d", "1515": "\u4ece\u6765", "1516": "\u6740\u6bd2", "1517": "\u4f18\u60e0", "1518": "\u6709\u79cd", "1519": "\u4f8b\u5b50", "1520": "\u8d77\u7801", "1521": "\u4ef7", "1522": "\u7f8e\u4e3d", "1523": "\u667a\u6167", "1524": "\u4e00\u6d41", "1525": "\u5dee\u8ddd", "1526": "\u6253\u7684", "1527": "\u57f9\u8bad", "1528": "\u751f", "1529": "linux", "1530": "\u52a0\u5f3a", "1531": "\u8bfb\u7269", "1532": "\u6613\u61c2", "1533": "\u5168\u9762", "1534": "\u623f\u9593", "1535": "\u7b26\u5408", "1536": "\u5dee\u5f02", "1537": "\u8bb0\u5fc6", "1538": "\u539f\u88c5", "1539": "\u7a7a\u6c14", "1540": "\u5b66\u4f1a", "1541": "\u4ec0\u4e48\u65f6\u5019", "1542": "\u6027\u683c", "1543": "\u57fa\u7840", "1544": "\u58f0", "1545": "\u6258", "1546": "\u6c38\u8fdc", "1547": "\u5f3a\u5927", "1548": "\u4ecd\u7136", "1549": "\u4e00\u5f00\u59cb", "1550": "\u56fd\u9645", "1551": "\u5c1d\u8bd5", "1552": "\u5361\u6885\u62c9", "1553": "\u94f6\u884c", "1554": "\u76f4\u5230", "1555": "\u8584", "1556": "\u4f18\u79c0", "1557": "\u65f6\u4ee3", "1558": "\u9700\u6c42", "1559": "\u8d76\u4e0a", "1560": "\u9a71\u52a8\u76d8", "1561": "IBM", "1562": "\u4e00\u53f0", "1563": "\u72ec", "1564": "\u7f3a\u4e4f", "1565": "\u65e9\u996d", "1566": "\u8bc4", "1567": "\u5f88\u5b89\u9759", "1568": "\u89c2\u5ff5", "1569": "\u6050\u6016", "1570": "\u4fee", "1571": "\u7528\u6765", "1572": "\u7ec6\u817b", "1573": "\u9ad8\u5174", "1574": "\u7c97\u7cd9", "1575": "\u771f\u8bda", "1576": "\u5bfb\u627e", "1577": "\u82e5", "1578": "\u57f9\u517b", "1579": "\u68c0\u67e5", "1580": "\u89c6\u9891", "1581": "\u7528\u5fc3", "1582": "\u8eab\u4e0a", "1583": "\u6216\u8bb8", "1584": "\u6309\u952e", "1585": "\u5ba2\u89c2", "1586": "\u95f9", "1587": "\u9ad8\u6e05", "1588": "\u53d7\u5230", "1589": "\u666f\u70b9", "1590": "\u5230\u8d27", "1591": "\u4eae", "1592": "\u5ea6\u5047", "1593": "\u63d0\u793a", "1594": "\u4e2a\u6027", "1595": "\u77ed", "1596": "\u7d2f", "1597": "\u5f88\u810f", "1598": "\u4e8b\u5b9e", "1599": "\u53d8", "1600": "\u5bb6\u91cc", "1601": "\u9ad8\u7ea7", "1602": "\u6b3e", "1603": "\u4e00\u4e2a\u6708", "1604": "\u5168\u65b0", "1605": "\u7b80\u6d01", "1606": "\u5927\u90e8\u5206", "1607": "\u63d2\u56fe", "1608": "\u65e5\u5e38", "1609": "\u8bc6\u522b", "1610": "\u5206\u6790", "1611": "\u767d\u5929", "1612": "\u5927\u5385", "1613": "\u51fa\u7248", "1614": "\u5927\u5b66", "1615": "\u5728\u4e8e", "1616": "\u4e13\u95e8", "1617": "\u8fde\u7eed", "1618": "\u7531", "1619": "\u670b\u53cb\u4eec", "1620": "\u5230\u5904", "1621": "\u7ed3\u5408", "1622": "\u97e9\u56fd", "1623": "\u70df\u5473", "1624": "\u5851\u6599", "1625": "\u63d0\u5347", "1626": "\u4e00\u4ef6", "1627": "\u697c\u4e0a", "1628": "\u8001\u516c", "1629": "\u7adf", "1630": "\u5355\u4eba", "1631": "\u7269\u54c1", "1632": "\u8fb9\u4e0a", "1633": "\u54ea\u4e2a", "1634": "\u513f\u7ae5", "1635": "\u5bc4", "1636": "\u968f\u673a", "1637": "\u7279\u70b9", "1638": "\u9488\u5bf9", "1639": "\u5bbe\u5ba2", "1640": "\u60a8\u597d", "1641": "\u8868", "1642": "\u8c8c\u4f3c", "1643": "\u5fc3\u7075", "1644": "\u623f\u578b", "1645": "\u53d8\u5316", "1646": "\u770b\u7535\u5f71", "1647": "\u6240\u8bf4", "1648": "\u4f5c\u5bb6", "1649": "\u6d77\u666f\u623f", "1650": "\u5e72", "1651": "\u53f7\u79f0", "1652": "\u7bc7", "1653": "\u59cb\u7ec8", "1654": "\u53cd\u800c", "1655": "\u76f8\u5dee", "1656": "\u94a2\u7434", "1657": "\u8c08", "1658": "\u4f1a\u5458", "1659": "\u80fd\u4e0d\u80fd", "1660": "thinkpad", "1661": "\u4e00\u53e5\u8bdd", "1662": "\u81ea\u52a8", "1663": "\u53cd\u590d", "1664": "\u5f02\u5473", "1665": "\u611f\u53d7\u5230", "1666": "\u5fd9", "1667": "\u6807", "1668": "\u7f51\u7ebf", "1669": "\u6e38\u6cf3\u6c60", "1670": "\u6682\u65f6", "1671": "\u5b9d\u8d1d", "1672": "\u65e2", "1673": "16", "1674": "\u5373", "1675": "\u4ecd", "1676": "\u767d", "1677": "\u770b\u4e0a\u53bb", "1678": "\u4e0d\u5bf9", "1679": "\u868a\u5b50", "1680": "\u6700\u9ad8", "1681": "\u58f0\u5361", "1682": "\u7231\u4e0d\u91ca\u624b", "1683": "\u5c31\u8fd9\u6837", "1684": "\u7ffb\u5f00", "1685": "\u56f0\u96be", "1686": "\u4e0d\u8fdc", "1687": "\u5f88\u8fdc", "1688": "\u547d\u8fd0", "1689": "\u611f\u89c9\u5230", "1690": "\u4eba\u7c7b", "1691": "\u4e00\u4e0b\u5b50", "1692": "\u81f3", "1693": "\u72b6\u6001", "1694": "\u8c03\u6574", "1695": "\u6309\u6469", "1696": "\u6388\u6743", "1697": "\u7269", "1698": "\u5c0f\u5fc3", "1699": "\u53d7\u76ca\u532a\u6d45", "1700": "\u80cc\u666f", "1701": "\u62ff\u6765", "1702": "\u5389\u5bb3", "1703": "\u5f88\u597d\u770b", "1704": "\u6b63\u662f", "1705": "\u5178\u578b", "1706": "\u4f53\u73b0", "1707": "\u53f3", "1708": "\u6709\u610f\u601d", "1709": "\u7092\u4f5c", "1710": "\u7b54\u590d", "1711": "\u4e00\u7bc7", "1712": "\u6a21\u5177", "1713": "\u5dee\u52b2", "1714": "\u4e0d\u6109\u5feb", "1715": "\u65c5\u9986", "1716": "\u6709\u7740", "1717": "\u602a", "1718": "\u533a\u522b", "1719": "\u4e00\u6bb5\u65f6\u95f4", "1720": "\u684c\u5b50", "1721": "\u81ea\u52a9\u9910", "1722": "\u6279\u8bc4", "1723": "\u4e0d\u61c2", "1724": "\u79d1\u5b66", "1725": "\u53cc", "1726": "\u73bb\u7483", "1727": "\u6761", "1728": "\u514d", "1729": "\u5546\u54c1", "1730": "\u8fbe", "1731": "\u5f88\u7b80\u5355", "1732": "\u51fa\u884c", "1733": "\u68a6\u60f3", "1734": "\u623f\u5b50", "1735": "\u98ce\u666f", "1736": "\u6545\u4e8b\u60c5\u8282", "1737": "\u4e0d\u5bb9\u6613", "1738": "\u5ffd\u60a0", "1739": "\u6bcd\u4eb2", "1740": "\u7565", "1741": "\u60f3\u8bf4", "1742": "\u7535\u89c6\u673a", "1743": "\u597d\u8bc4", "1744": "\u606d\u7ef4", "1745": "\u826f\u597d", "1746": "\u7b2c\u4e00\u5929", "1747": "\u7b49\u5230", "1748": "\u5b57\u4f53", "1749": "\u542f\u53d1", "1750": "\u4e66\u5e97", "1751": "\u72b6\u51b5", "1752": "\u5a31\u4e50", "1753": "\u4ea6", "1754": "\u6ca1\u7528", "1755": "\u6d77\u8fb9", "1756": "+", "1757": "\u7f18\u6545", "1758": "\u4f4f\u5e97", "1759": "\u7ec6\u81f4", "1760": "\u597d\u5904", "1761": "\u7f51\u53cb", "1762": "\u6b63\u786e", "1763": "\u7a97\u5916", "1764": "\u5730\u94c1\u7ad9", "1765": "\u62c9\u62c9", "1766": "\u5c0f\u5c0f", "1767": "\u66f4\u65b0", "1768": "\u7406\u5ff5", "1769": "\u4e0d\u80af", "1770": "\u7f51\u901f", "1771": "\u8fd9\u4e00\u70b9", "1772": "\u5e02\u573a", "1773": "\u8f83\u597d", "1774": "\u8001\u677f", "1775": "\u8d60\u54c1", "1776": "\u4e2d\u6587", "1777": "cpu", "1778": "\u5f00\u8f66", "1779": "\u529e\u4e8b", "1780": "\u8d44\u6599", "1781": "\u540c\u610f", "1782": "\u70e6", "1783": "\u5e74\u4ee3", "1784": "\u4e00\u53ea", "1785": "\u6d45\u663e", "1786": "\u8d39\u7528", "1787": "\u8db3", "1788": "\u4f69\u670d", "1789": "ctrip", "1790": "\u7167\u7247", "1791": "\u6bcf\u4e00\u4e2a", "1792": "\u8eba", "1793": "\u9002\u5e94", "1794": "\u7e41\u534e", "1795": "\u6d77", "1796": "\u624b\u91cc", "1797": "\u7406", "1798": "\u8f83\u5dee", "1799": "\u5f62\u5bb9", "1800": "\u53ef\u80fd\u4f1a", "1801": "\u4fdd\u62a4", "1802": "\u5b66\u6821", "1803": "\u5916\u5f62", "1804": "\u793c\u8c8c", "1805": "\u4f20\u7edf", "1806": "\u6beb\u65e0", "1807": "\uff02", "1808": "\u627f\u8ba4", "1809": "\u8fd0\u6c14", "1810": "\u4e00\u665a\u4e0a", "1811": "\u7f3a\u8d27", "1812": "\u60ca\u559c", "1813": "\u8868\u626c", "1814": "\u65bd\u5de5", "1815": "\u8bef\u5bfc", "1816": "\u6559\u6750", "1817": "\u4e66\u672c", "1818": "\u4e0d\u5728", "1819": "\u5fae\u7b11", "1820": "\u70e4\u6f06", "1821": "\u76d6", "1822": "\u4e0a\u4e0b", "1823": "\u8ddf\u7740", "1824": "\u5177\u6709", "1825": "\u62bc\u91d1", "1826": "\u601d\u7ef4", "1827": "\u574f\u70b9", "1828": "\u97f3\u8d28", "1829": "\u624d\u4f1a", "1830": "\u60c5\u611f", "1831": "\u672c\u5b50", "1832": "\u793c\u7269", "1833": "\u6d3b", "1834": "\u67d0", "1835": "\u5973\u751f", "1836": "\u4f5c\u7528", "1837": "\u5171\u9e23", "1838": "\u63a5\u673a", "1839": "\u867d\u8bf4", "1840": "\u7238\u7238", "1841": "\u6570\u5b66", "1842": "\u4e0d\u89c1", "1843": "\u8f7b\u4fbf", "1844": "\u8001\u5a46", "1845": "\u7d27\u5f20", "1846": "\u5c1a\u53ef", "1847": "\u6254", "1848": "\u4e1a\u52a1", "1849": "\u6ca1\u6709\u4eba", "1850": "\u8d1f\u8d23", "1851": "\u52a8\u7269", "1852": "\u7a97", "1853": "\u96be\u5f97", "1854": "\u63a5\u5230", "1855": "100", "1856": "\u5927\u591a\u6570", "1857": "\u804a\u5929", "1858": "\u53d1\u51fa", "1859": "\u4eb2\u5207", "1860": "\u6c14", "1861": "\u8bb2\u8ff0", "1862": "A", "1863": "20\u5206\u949f", "1864": "\u706b", "1865": "\u56de\u5fc6", "1866": "\u7ecf", "1867": "\u65b9\u5411", "1868": "\u81ea\u7531", "1869": "\u6697", "1870": "\u53d7\u4e0d\u4e86", "1871": "\u5e03\u5c40", "1872": "\u526f\u7406", "1873": "\u6f2b\u753b", "1874": "\u5546\u573a", "1875": "\u65e0\u8bed", "1876": "\u54c8", "1877": "\u534a\u5c0f\u65f6", "1878": "\u795e\u5947", "1879": "\u73b0\u91d1", "1880": "\u900f", "1881": "\u5728\u5e8a\u4e0a", "1882": "\u5979\u8bf4", "1883": "\u97f3\u54cd", "1884": "\u4eba\u6027", "1885": "\u5176\u6b21", "1886": "\u4e3b\u6d41", "1887": "\u7535", "1888": "\u81f3\u4eca", "1889": "\u8be5\u4e66", "1890": "\u4e0d\u7b26", "1891": "\u968f\u7740", "1892": "\u7ae5\u5e74", "1893": "\u56db", "1894": "\u4fdd\u7559", "1895": "\u4e09\u5929", "1896": "\u52a8\u4f5c", "1897": "\u84dd\u5c4f", "1898": "\u5f00\u5173", "1899": "\u5f15\u5bfc", "1900": "\u4eae\u5ea6", "1901": "\u5927\u91cf", "1902": "\u518d\u6765", "1903": "\u5165", "1904": "\u73b0\u4ee3", "1905": "\u7a7f", "1906": "\u8bf4\u660e\u4e66", "1907": "\u5f88\u9ebb\u70e6", "1908": "\u4f4d\u4e8e", "1909": "\u4f53\u9a8c", "1910": "\u63a5\u7740", "1911": "\u4e00\u5171", "1912": "\u8981\u547d", "1913": "\u5747\u8861", "1914": "\u725b", "1915": "\u52c7\u6562", "1916": "\u6536\u62fe", "1917": "\u5171", "1918": "\u7ba1", "1919": "\u6e29\u6cc9", "1920": "\u6696\u6c14", "1921": "\u4e4b\u5916", "1922": "\u8d70\u8def", "1923": "\u67d0\u4e9b", "1924": "\u89d2", "1925": "\u5973\u5b50", "1926": "\u5c3d", "1927": "\u82b1\u56ed", "1928": "the", "1929": "\u5bf9\u5f85", "1930": "2\u5929", "1931": "\u822c", "1932": "\u4e24\u5f20", "1933": "\u98df\u54c1", "1934": "\u7533\u8bf7", "1935": "\u6c34\u9f99\u5934", "1936": "IDE", "1937": "\u7a7a", "1938": "\u5de6", "1939": "\u5b9e\u73b0", "1940": "\u7eaf\u7cb9", "1941": "\u5973\u5b69", "1942": "\u4e00\u9762", "1943": "\u4ed8\u6b3e", "1944": "\u7a81\u51fa", "1945": "\u98df\u7269", "1946": "\u539f\u672c", "1947": "\u5927\u65b9", "1948": "\u5916\u56fd", "1949": "\u6e29\u6696", "1950": "\u5b98\u65b9", "1951": "\u5c0f\u5b66", "1952": "\u4ece\u4e2d", "1953": "\u6e05\u6d01", "1954": "\u4e24", "1955": "\u957f\u5927", "1956": "\u7f51\u9875", "1957": "\u5bb6\u4eba", "1958": "\u5b8c\u6574", "1959": "\u4e3b\u9898", "1960": "\u5355\u95f4", "1961": "2\u5c81", "1962": "\u5b9e\u9645\u4e0a", "1963": "\u6d3b\u7740", "1964": "\u5199\u4f5c", "1965": "LINUX", "1966": "\u5bf9\u65b9", "1967": "\u7535\u6e90\u9002\u914d\u5668", "1968": "\u5929\u6c14", "1969": "\u6df1\u5ea6", "1970": "\u5149", "1971": "\u76f8\u540c", "1972": "\u5f53\u521d", "1973": "\u4ea4", "1974": "out", "1975": "\u65e2\u7136", "1976": "100\u5143", "1977": "\u5c0f\u65f6\u5019", "1978": "\u968f\u65f6", "1979": "\u4fe1", "1980": "\u53bb\u627e", "1981": "\u8df3", "1982": "\u5df4\u58eb", "1983": "\u7528\u9910", "1984": "10\u5206\u949f", "1985": "\u7f51", "1986": "OK", "1987": "\u7a0b\u5e8f", "1988": "\u56de\u4e8b", "1989": "\u5fc3\u6001", "1990": "\u5212\u7b97", "1991": "3\u4e2a", "1992": "\u8bb0", "1993": "\u4f01\u4e1a", "1994": "\u5728\u90a3\u91cc", "1995": "\u62ff\u7740", "1996": "\u4ee5\u6765", "1997": "\u4e00\u6b3e", "1998": "\u5fc3\u5f97", "1999": "\u8bf4\u597d", "2000": "\u5587\u53ed", "2001": "\u533b\u9662", "2002": "\u4fdd\u5b89", "2003": "\u7b2c\u4e8c", "2004": "\u653e\u5f03", "2005": "\u54a8\u8be2", "2006": "\u7f3a\u5c11", "2007": "\u4e66\u540d", "2008": "\u5206\u4eab", "2009": "\u5bf9\u4e0d\u8d77", "2010": "\u72ec\u7acb", "2011": "\u4fe1\u53f7", "2012": "\u706b\u8f66", "2013": "\u5e8a\u4e0a", "2014": "\u4e00\u591c", "2015": "\u706f\u5149", "2016": "\u5360", "2017": "\u501f", "2018": "\u8fdb\u95e8", "2019": "\u4e0b\u697c", "2020": "\u7701", "2021": "\u8bc1\u660e", "2022": "\u5bf9\u8bdd", "2023": "\u61c2\u5f97", "2024": "\u5e7f\u5dde", "2025": "\u672a\u6765", "2026": "\u62c6", "2027": "\u6025", "2028": "\u540c\u7c7b", "2029": "\u94a2\u7434\u70e4\u6f06", "2030": "\u8bf4\u6cd5", "2031": "\u6d88\u8d39\u8005", "2032": "\u5747", "2033": "\u8d39\u52b2", "2034": "\u5076\u5c14", "2035": "\u4e2d\u592e\u7a7a\u8c03", "2036": "\u4e24\u4e2a\u4eba", "2037": "\u7f62", "2038": "\u673a\u8eab", "2039": "\u996e\u98df", "2040": "\u5730\u5740", "2041": "\u6765\u4e86", "2042": "\u5e38\u7528", "2043": "\u5f62\u5f0f", "2044": "\u8001\u5916", "2045": "\u63a5\u8fd1", "2046": "\u8003\u8651\u5230", "2047": "\u901a\u4fd7", "2048": "\u5b69\u5b50\u4eec", "2049": "\u5938\u5f20", "2050": "\u6e05", "2051": "\u6b3a\u9a97", "2052": "\u732b", "2053": "\u955c\u9762", "2054": "\u8fde\u63a5", "2055": "\u5fcd\u4e0d\u4f4f", "2056": "\u610f\u5916", "2057": "\u4eca\u540e", "2058": "\u677e", "2059": "\u4efd", "2060": "2008", "2061": "\u7a7a\u6d1e", "2062": "\u7c7b", "2063": "\u62cd", "2064": "\u5bf9\u7740", "2065": "8", "2066": "\u501f\u9274", "2067": "\u5730\u677f", "2068": "\u8ba2\u8d2d", "2069": "\u5e95\u90e8", "2070": "\u4e00\u6b21\u6027", "2071": "\u90e8\u95e8", "2072": "\u5e7c\u513f\u56ed", "2073": "\u6c14\u5473", "2074": "\u4e00\u5757", "2075": "\u8bfb\u8d77\u6765", "2076": "\u7ec6\u7ec6", "2077": "\u9002\u4e2d", "2078": "\u914d\u5408", "2079": "\u6807\u623f", "2080": "\u6d45", "2081": "\u59b9\u59b9", "2082": "\u7ef4\u4fee", "2083": "\u62d2\u7edd", "2084": "\u4e00\u822c\u822c", "2085": "\u5927\u5e08", "2086": "\u7ed3\u6784", "2087": "\u5fd8\u8bb0", "2088": "\u8fdb\u6765", "2089": "\u63d2", "2090": "\u8001\u65e7", "2091": "\u4e24\u5c81", "2092": "\u50ac", "2093": "\u8c03\u8282", "2094": "\u5927\u591a", "2095": "\u803d\u8bef", "2096": "\u65e9\u5c31", "2097": "\u77e5", "2098": "\u5de6\u8fb9", "2099": "\u5730\u4e0a", "2100": "\u65e0\u6240\u8c13", "2101": "\u9999\u683c\u91cc\u62c9", "2102": "\u4e00\u4e2a\u5b57", "2103": "\u53d1\u9709", "2104": "\u7ea6", "2105": "\u5e02", "2106": "\u7ade\u4e89\u529b", "2107": "5\u5206\u949f", "2108": "\u6df1\u5165", "2109": "\u6c92\u6709", "2110": "\u79fb\u52a8", "2111": "\u5f88\u5f00\u5fc3", "2112": "\u5927\u6d77", "2113": "C\u76d8", "2114": "\u62b1\u7740", "2115": "\u5468\u672b", "2116": "\u81ea\u8eab", "2117": "\u6d74\u5dfe", "2118": "\u53ef\u89c1", "2119": "\u6446", "2120": "\u53bb\u8fc7", "2121": "\u65e0\u70df", "2122": "\u4e8b\u4ef6", "2123": "\u4ec0\u4e48\u6837", "2124": "\u6709\u7528", "2125": "\u53ef\u6015", "2126": "\u51c9", "2127": "\u8bc4\u5206", "2128": "\u7537\u5973", "2129": "\u4f20\u8bf4", "2130": "\u9001\u9910", "2131": "\u6d89\u53ca", "2132": "\u91d1\u5c5e", "2133": "\u4f4f\u5ba2", "2134": "\u5efa\u7b51", "2135": "\u611f\u5192", "2136": "\u957f\u9014", "2137": "\u5907\u4efd", "2138": "\u5929\u5929", "2139": "\u8d76\u7d27", "2140": "\u642d\u914d", "2141": "\u7b54\u6848", "2142": "\u770b\u6cd5", "2143": "\u60f3\u8d77", "2144": "\u8336", "2145": "\u4e09\u672c", "2146": "\u67e5\u623f", "2147": "\u591f\u4e86", "2148": "\u591a\u5927", "2149": "\u51d1\u5408", "2150": "\u4ee3\u7406", "2151": "com", "2152": "\u5927\u6c14", "2153": "\u5927\u95e8", "2154": "\u627f\u8bfa", "2155": "\u6c57", "2156": "\u504f\u9ad8", "2157": "\u9610\u8ff0", "2158": "\u6bb5", "2159": "\u542b", "2160": "\u5e26\u7ed9", "2161": "\u6b21", "2162": "\u51fa\u7248\u793e", "2163": "\u80a4\u6d45", "2164": "\u521a\u597d", "2165": "\u505a\u6cd5", "2166": "\u64ad\u653e", "2167": "\u6307", "2168": "\u4e00\u4f1a\u513f", "2169": "\u751f\u6c14", "2170": "\u5305\u5305", "2171": "\u597d\u4e45", "2172": "\u6df7\u4e71", "2173": "\u914d\u5957", "2174": "\u5e74\u8f7b", "2175": "\u5957\u9910", "2176": "\u5f80\u5f80", "2177": "\u7ffb\u770b", "2178": "\u4f24\u5fc3", "2179": "\u5bf9\u6b64", "2180": "\u53d9\u8ff0", "2181": "\u7ed8\u672c", "2182": "\u5e9f\u8bdd", "2183": "250G", "2184": "\u7b2c\u4e00\u672c", "2185": "5\u5c81", "2186": "\u8001\u662f", "2187": "\u6839", "2188": "\u6ce8\u518c", "2189": "\u597d\u5947", "2190": "\u6c99\u53d1", "2191": "\u8457\u4f5c", "2192": "\u90a3\u4f4d", "2193": "\u53a6\u95e8", "2194": "\u7ae0\u8282", "2195": "\u65b0\u9c9c", "2196": "\u6ca1\u4e8b", "2197": "\u65e5\u5e38\u751f\u6d3b", "2198": "\u4e1c\u4e1c", "2199": "\u65e0\u6bd4", "2200": "\u51b2\u52a8", "2201": "\u6253\u5b57", "2202": "\u8d28\u611f", "2203": "\u897f", "2204": "\u5c3d\u91cf", "2205": "\u518d\u4e70", "2206": "\u539f", "2207": "\u4e94", "2208": "\u5e76\u975e", "2209": "\u8fdb\u4e00\u6b65", "2210": "\u643a", "2211": "\u4e3a\u60a8", "2212": "\u65e0\u804a", "2213": "\u7a7f\u8d8a", "2214": "\u534f\u8bae", "2215": "\u97f3\u7bb1", "2216": "\u2018", "2217": "\u4e0d\u5168", "2218": "\u770b\u5b8c\u540e", "2219": "\u5931\u53bb", "2220": "\u4ed8\u51fa", "2221": "\u7535\u89c6\u5267", "2222": "\u5c06\u8fd1", "2223": "\u62c5\u4fdd", "2224": "\u8865", "2225": "\u8fd0\u7528", "2226": "\u5b8c\u5584", "2227": "\u68c0\u6d4b", "2228": "\u5b9e\u8df5", "2229": "\u4fe1\u4efb", "2230": "\u53a8\u623f", "2231": "\u2229", "2232": "\u7f8e\u89c2", "2233": "\u7a74\u4f4d", "2234": "\u5feb\u6377\u952e", "2235": "\u5076", "2236": "\u653e\u4e0b", "2237": "\u51b0\u7bb1", "2238": "\u4e00\u9875", "2239": "\u4e24\u4eba", "2240": "\u538b", "2241": "\u70ed\u95f9", "2242": "\u671f\u671b", "2243": "1999", "2244": "\u6dcb\u6d74\u623f", "2245": "\u811a", "2246": "\u6218\u4e89", "2247": "\u529b\u91cf", "2248": "\u4e00\u5c42", "2249": "\u7070", "2250": "\u6f0f\u6c34", "2251": "\u9519\u8fc7", "2252": "DVD", "2253": "15\u5206\u949f", "2254": "\u9759", "2255": "\u91c7\u7528", "2256": "\u52c7\u6c14", "2257": "\u8d34\u8fd1", "2258": "\u80cc", "2259": "\u914d\u4ef6", "2260": "\u9644\u5e26", "2261": "\u5f88\u5b9e\u7528", "2262": "\u4e3a\u4f55", "2263": "\u66fe", "2264": "\u8bcd", "2265": "3\u661f", "2266": "\u751f\u610f", "2267": "\u5916\u51fa", "2268": "\u6de1\u6de1", "2269": "\u5b9a\u5355", "2270": "\u633a\u4e0d\u9519", "2271": "\u62b1\u6028", "2272": "\u9020\u578b", "2273": "\u6280\u5de7", "2274": "\u5931\u8d25", "2275": "\u8d2d", "2276": "\u5b66\u5230", "2277": "\u56fd\u5916", "2278": "\u6b20", "2279": "\u6e38\u5ba2", "2280": "\u9636\u6bb5", "2281": "\u5e73\u6de1", "2282": "\u2019", "2283": "\u5e38\u5e38", "2284": "\u8bfb\u5361\u5668", "2285": "SATA", "2286": "\u53f7", "2287": "\u623f\u95e8", "2288": "\u6795\u5934", "2289": "\u4e0b\u6c34", "2290": "\u6fa1", "2291": "\u4e34\u65f6", "2292": "\u67f3\u5dde", "2293": "\u7ffb\u9605", "2294": "\u666f\u8272", "2295": "800", "2296": "\u5bb6\u7528", "2297": "\u751f\u786c", "2298": "\u53e3\u5473", "2299": "\u8d34\u7eb8", "2300": "\u73cd\u60dc", "2301": "\u6df1\u6df1", "2302": "\u4eba\u58eb", "2303": "'", "2304": "\u7bb1\u5b50", "2305": "\u7d27", "2306": "\u503c\u73ed", "2307": "\u7a97\u5e18", "2308": "\u7b2c\u4e8c\u5929\u65e9\u4e0a", "2309": "\u5728\u6b64", "2310": "\u795d", "2311": "\u4e0d\u9700\u8981", "2312": "12\u70b9", "2313": "\u62a5", "2314": "\u5c31\u8ba9", "2315": "\u9e21\u86cb", "2316": "\u7136\u800c", "2317": "\u5e84\u5b50", "2318": "\u4eca\u5e74", "2319": "\u663e\u793a\u5c4f", "2320": "\u5165\u7761", "2321": "\u4f4d", "2322": "\u5f85", "2323": "\u544a\u8bc9\u4f60", "2324": "\u603b\u7b97", "2325": "\u641e\u7b11", "2326": "\u505a\u4e8b", "2327": "\u7b2c\u4e00\u4e2a", "2328": "\u8d35\u5bbe", "2329": "\u7acb\u5373", "2330": "\u8ba8\u538c", "2331": "24\u5c0f\u65f6", "2332": "\u66f4\u559c\u6b22", "2333": "\u5bf9\u6bd4", "2334": "\u6717\u8bfb", "2335": "\u8303\u56f4", "2336": "\u8fd8\u7ed9", "2337": "\u5e74\u7eaa", "2338": "\u4f1a\u8bae", "2339": "\u6574\u7406", "2340": "\u5e03\u7f6e", "2341": "\u671b", "2342": "\u5927\u5927", "2343": "\u5f3a\u8c03", "2344": "\u516c\u5e73", "2345": "\u7279\u6b8a", "2346": "\u4f53\u79ef", "2347": "\u70eb\u624b", "2348": "\u8bb2\u89e3", "2349": "\u8ba4\u540c", "2350": "\u663e\u7136", "2351": "\u9500\u552e", "2352": "\u4eb2\u81ea", "2353": "\u4e00\u4e2a\u5c0f\u65f6", "2354": "\u4e00\u4e2a\u4e2a", "2355": "\u573a\u666f", "2356": "\u5927\u5df4", "2357": "\u7ebf", "2358": "\u8fb9\u6846", "2359": "\u65f6\u5149", "2360": "B", "2361": "\u638c\u63e1", "2362": "\u914d\u5907", "2363": "\u6b63\u5982", "2364": "\u5ba4\u5185", "2365": "\u89c6\u89d2", "2366": "\u6210\u672c", "2367": "\u5546\u4e1a", "2368": "\u4f18\u7f8e", "2369": "\u53f3\u8fb9", "2370": "\u4e70\u4e1c\u897f", "2371": "\u81f4\u7535", "2372": "\u534a\u4e2a\u6708", "2373": "\u6302\u724c", "2374": "\u80a1", "2375": "\u5c0f\u9ed1", "2376": "\u89c2\u5bdf", "2377": "\u79ef\u6781", "2378": "\u4e00\u81f4", "2379": "\u5c0f\u5403", "2380": "\u7acb\u523b", "2381": "\u5bfc\u822a", "2382": "\u5357\u4eac", "2383": "\u5f3a\u52b2", "2384": "\u5927\u4f17", "2385": "\u5ba2", "2386": "\u903b\u8f91", "2387": "\u4e0d\u5f97", "2388": "\u98ce\u53e3", "2389": "\u7b11\u5bb9", "2390": "10", "2391": "\u73b0", "2392": "\u5176\u4f59", "2393": "\u5c3a\u5bf8", "2394": "\u9ea6\u514b\u98ce", "2395": "\u73ed\u8f66", "2396": "\u5e73\u51e1", "2397": "\u9884", "2398": "\u4e8b\u5148", "2399": "\u8010\u7528", "2400": "\u4e3b\u7ba1", "2401": "\u5355\u4f4d", "2402": "\u53ef\u7b11", "2403": "\u4ea4\u6d41", "2404": "\u819c", "2405": "\u90a3\u4e48\u597d", "2406": "\u8bb0\u5f55", "2407": "\u6807\u5fd7", "2408": "\u7f3a", "2409": "\u4e00\u58f0", "2410": "\u524d\u540e", "2411": "\u6307\u793a\u706f", "2412": "\u9e21\u808b", "2413": "20\u5143", "2414": "\u8fdc\u8fdc", "2415": "\u5199\u51fa", "2416": "\u5185\u5b58\u6761", "2417": "\u6539\u88c5", "2418": "\u6559\u6388", "2419": "\u51e0", "2420": "\u4ee5\u5916", "2421": "\u89c9", "2422": "\u6587\u4ef6", "2423": "\u6613", "2424": "\u533b\u751f", "2425": "\u56fd", "2426": "\u6307\u5bfc", "2427": "\u5f53\u5e74", "2428": "\u5176\u4ed6\u4eba", "2429": "\u968f\u624b", "2430": "\u7f8e\u5973", "2431": "\u6b64\u4e8b", "2432": "\u6c42\u533b", "2433": "\u4eff\u4f5b", "2434": "\u901b\u8857", "2435": "\u79f0", "2436": "\u611f\u609f", "2437": "\u4e22", "2438": "\u670d\u52d9", "2439": "\u6570\u5b57", "2440": "\u7279", "2441": "\u5dee\u522b", "2442": "\u4e3b\u677f", "2443": "\u5438\u5f15\u529b", "2444": "\u5206\u8fa8\u7387", "2445": "\u5165\u95e8", "2446": "\u6392\u7248", "2447": "\u5165\u624b", "2448": "\u6ca1\u610f\u601d", "2449": "\u7167", "2450": "\u6311", "2451": "\u4e0a\u95e8", "2452": "\u5145\u5206", "2453": "\u6ca1\u4e86", "2454": "\u5730\u56fe", "2455": "\u83b7\u5f97", "2456": "\u6f6e\u6e7f", "2457": "\u5144\u5f1f", "2458": "\u4fee\u6539", "2459": "\u82e6", "2460": "\u660e\u786e", "2461": "\u6c34\u58f6", "2462": "\u5927\u578b", "2463": "\u770b\u4f3c", "2464": "\u7279\u610f", "2465": "\u4f9b", "2466": "\u91cf", "2467": "QQ", "2468": "\u62ff\u51fa\u6765", "2469": "\u6b64\u6b21", "2470": "\u5927\u5931\u6240\u671b", "2471": "\u5229\u76ca", "2472": " \u4f46", "2473": "\u540c\u7b49", "2474": "\u6068", "2475": "\u7f8e\u4e2d\u4e0d\u8db3", "2476": "\u7ec6\u5fc3", "2477": "\u96be\u5ea6", "2478": "\u8bb0\u4f4f", "2479": "3\u5929", "2480": "\u4ec5\u4ec5", "2481": "\u4e0d\u4ec5\u4ec5", "2482": "\u80fd\u770b\u5230", "2483": "\u5f00\u4e1a", "2484": "\u559c\u7231", "2485": "\u7b7e\u5355", "2486": "\u4e00\u5206", "2487": "\u8f7b\u8584", "2488": "\u5973\u58eb", "2489": "\u80e1\u5170\u6210", "2490": "\u6700\u7231", "2491": "\u91cd\u70b9", "2492": "\u5fc3\u7406\u5b66", "2493": "\u4eb2\u5b50", "2494": "\u538b\u6291", "2495": "\u806a\u660e", "2496": "\u5408", "2497": "\u643a\u7a0b\u7f51", "2498": "\u97f3\u4e50", "2499": "\u9ed1\u5e97", "2500": "\u6109\u5feb", "2501": "o", "2502": "\u4e0d\u7b26\u5408", "2503": "\u7c97", "2504": "\u5199\u610f", "2505": "\u578b\u53f7", "2506": "\u6df1\u5733", "2507": "\u6563\u6587", "2508": "\u4e0d\u6ee1", "2509": "\u60c5\u7eea", "2510": "\u5f53\u4e2d", "2511": "\u4f18\u8d28", "2512": "\u9526\u6c5f\u4e4b\u661f", "2513": "\u665a\u9910", "2514": "\u7cfb\u7edf\u76d8", "2515": "\u51fa\u53d1", "2516": "\u957f\u671f", "2517": "\u7b54\u5e94", "2518": "\u6570", "2519": "\u5e78\u597d", "2520": "\u901a\u98ce", "2521": "\u7fa1\u6155", "2522": "\u9ad8\u5c42", "2523": "\u722c", "2524": "\u53c8\u8981", "2525": "\u770b\u4e00\u4e0b", "2526": "\u5185\u80c6\u5305", "2527": "\u8f83\u5c0f", "2528": "\u5185\u6db5", "2529": "\u79cd\u7c7b", "2530": "\u4e3a\u6b62", "2531": "\u8f66\u7ad9", "2532": "\u7c98", "2533": "\u7d22\u5f15", "2534": "\u7ea7\u522b", "2535": "\u8fd9\u4f4d", "2536": "\u534a\u4e2a\u5c0f\u65f6", "2537": "\u906d\u9047", "2538": "\u5949\u529d", "2539": "\u53bb\u5e74", "2540": "\u8bd5\u8bd5", "2541": "\u5e73\u8861", "2542": "\u505a\u597d", "2543": "\u8bf7\u95ee", "2544": "\u6625\u8282", "2545": "\u5f88\u53ef\u7231", "2546": "\u4e3a\u4e3b", "2547": "\u725b\u5976", "2548": "\u65c5\u884c", "2549": "\u4e00\u90e8\u5206", "2550": "\u5e8a\u57ab", "2551": "\u6848\u4f8b", "2552": "\u4e00\u8d2f", "2553": "\u67e5\u770b", "2554": "\u5185\u7f6e", "2555": "\u90a3\u8fb9", "2556": "\u8bdd\u8bf4", "2557": "\u5f00\u5c01", "2558": "\u5e94\u7528", "2559": "\u5feb\u6377", "2560": "\u7ffb\u7ffb", "2561": "\u5c0a\u91cd", "2562": "\u5ef6\u8fdf", "2563": "\u8868\u60c5", "2564": "\u4e00\u4e2a\u665a\u4e0a", "2565": "\u6539\u9020", "2566": "\u8003\u8bd5", "2567": "\u53cc\u6838", "2568": "\u5c0f\u65f6", "2569": "\u884c\u4e1a", "2570": "\u6574\u673a", "2571": "\u5bbd\u5c4f", "2572": "Check", "2573": "\u5de8\u5927", "2574": "\u5b9e\u7528\u6027", "2575": "\u53c8\u8bf4", "2576": "\u4e00\u756a", "2577": "\u7684\u58eb", "2578": "\u72ec\u7279", "2579": "\u89e6\u6478", "2580": "\u6742\u5fd7", "2581": "\u6211\u76f8\u4fe1", "2582": "\u6b7b\u673a", "2583": "\u5173\u95ed", "2584": "\u62a2", "2585": "\u5c31\u8c61", "2586": "\u5e38", "2587": "\u53f0\u5f0f\u673a", "2588": "\u5355\u72ec", "2589": "\u517c\u5bb9", "2590": "\u51e0\u904d", "2591": "\u535a\u5ba2", "2592": "\u5899\u4e0a", "2593": "\u597d\u5403", "2594": "\u4e66\u540e", "2595": "\u7761\u7740", "2596": "\u8272", "2597": "\u4e2d\u5f0f", "2598": "\u65e5\u5b50", "2599": "200\u5143", "2600": "\u770b\u4e0d\u5230", "2601": "\u6700\u521d", "2602": "\u8bda\u8058", "2603": "\u82f1\u624d", "2604": "\u63a8\u7406", "2605": "14\u5bf8", "2606": "\u5173\u673a", "2607": "\u9879\u76ee", "2608": "\u77ff\u6cc9\u6c34", "2609": "\u827a\u672f", "2610": "\u62e8\u6253", "2611": "\u7ef4\u62a4", "2612": "\u773c\u5149", "2613": "\u642d", "2614": "\u793c\u54c1", "2615": "\u8d70\u9053", "2616": "\u9a8c\u8d27", "2617": "\u70ed\u7231", "2618": "\u4e58", "2619": "\u66f4\u662f", "2620": "\u88c5\u9970", "2621": "\u90a3\u65f6", "2622": "\u675c\u62c9\u62c9", "2623": "\u9f99\u5934", "2624": "\u9633\u53f0", "2625": "\u7275\u5f3a", "2626": "\u4e0d\u8d35", "2627": "\u6a21\u7cca", "2628": "\u53e6\u4e00\u4e2a", "2629": "\u7efc\u5408", "2630": "\u4e8b\u7269", "2631": "\u5229\u7528", "2632": "\u534f\u7a0b", "2633": "\u8d2d\u4e66", "2634": "\u4e0d\u4e70", "2635": "\u6572\u95e8", "2636": "\u907f\u514d", "2637": "\u54f2\u5b66", "2638": "\u5c0f\u5b66\u751f", "2639": "\u539f\u7248", "2640": "\u4f9b\u5e94", "2641": "4\u5c81", "2642": "\u8f7b\u5de7", "2643": "\u504f\u50fb", "2644": "\u96be\u53d7", "2645": "\u652f\u4ed8", "2646": "\u53d1\u89c9", "2647": "\u786e\u5b9a", "2648": "\u56de\u5473", "2649": "\u5145\u7535", "2650": "\u6750\u6599", "2651": "\u591a\u5e74", "2652": "\u6c11\u65cf", "2653": "\u72b9\u8c6b", "2654": "3\u5c81", "2655": "\u4ef6", "2656": "\u4e00\u540d", "2657": "\u7eaf", "2658": "\u5e8a\u5934", "2659": "\u6295\u8d44", "2660": "\u63d2\u69fd", "2661": "\u5f15\u8d77", "2662": "\u6392\u884c\u699c", "2663": "\u6ce8\u660e", "2664": "\u6210\u90fd", "2665": "I", "2666": "\u4f73", "2667": "\u4e16\u754c\u4e0a", "2668": "\u563f\u563f", "2669": "\u8bb2\u6545\u4e8b", "2670": "\u6f06", "2671": "\u96be\u5403", "2672": "\u4f24\u611f", "2673": "\u4e66\u5199", "2674": "\u81ea\u5df2", "2675": "500", "2676": "\u64e6", "2677": "\u81ed", "2678": "Copyright", "2679": "\u7565\u663e", "2680": "\u5916\u8868", "2681": "\u4f24\u5bb3", "2682": "\u4e94\u661f\u9152\u5e97", "2683": "AMD", "2684": "\u6d41\u884c", "2685": "\u671d", "2686": "\u5439", "2687": "\u996d\u83dc", "2688": "\u8138", "2689": "\u5982\u4e0b", "2690": "\u4e50\u89c2", "2691": "\u5b66\u8005", "2692": "\u6781\u5927", "2693": "\u770b\u7535\u89c6", "2694": "\u5f88\u591a\u6b21", "2695": "\u9a97\u4eba", "2696": "\u96be\u602a", "2697": "\u5f88\u5b9e\u60e0", "2698": "\u505a\u4e3a", "2699": "\u516c\u4ea4\u8f66", "2700": "\u7092", "2701": "\u51c6\u786e", "2702": "\u5c06\u5c31", "2703": "\u7c7b\u578b", "2704": "\u89c4\u8303", "2705": "\u6982\u5ff5", "2706": "\u8bf4\u5230", "2707": "\u4e0d\u8d1f", "2708": "15", "2709": "\u5f88\u660e\u663e", "2710": "\u53d7\u76ca", "2711": "\u90a3\u6bb5", "2712": "\u660e\u5929", "2713": "\u51e0\u5e74", "2714": "\u597d\u627e", "2715": "\u65e9\u6668", "2716": "\u4e00\u5c81", "2717": "\u5acc\u7591", "2718": "\u5f88\u65e9", "2719": "\u67dc\u53f0", "2720": "\u4e2a\u522b", "2721": "\u8f83\u591a", "2722": "\u62a5\u7eb8", "2723": "\u6392", "2724": "\u635f\u574f", "2725": "\u6210\u719f", "2726": "\u65e9\u70b9", "2727": "\u770b\u4e0d\u61c2", "2728": "\u901f\u5ea6\u5feb", "2729": "\u4e8f", "2730": "\u8f6f", "2731": "\u4f1a\u4e0d\u4f1a", "2732": "4999", "2733": "\u8feb\u4e0d\u53ca\u5f85", "2734": "\u5f00\u7a97", "2735": "\u7ed3\u5c3e", "2736": "\u9002\u7528", "2737": "\u771f\u597d", "2738": "\u97f3\u91cf", "2739": "\u6d53", "2740": "\u5439\u6367", "2741": "\u8fd8\u4ee5\u4e3a", "2742": "\u8bfb\u540e", "2743": "\u590f\u5929", "2744": "\u4e0b\u73ed", "2745": "\u5a01\u6d77", "2746": "Linux", "2747": "\u7f16\u8f91", "2748": "GHOST", "2749": "\u62b1\u6b49", "2750": "\u4e00\u5e74", "2751": "\u534e\u4e3d", "2752": "\u53ca\u5176", "2753": "DDR3", "2754": "\u8001\u5316", "2755": "\u8001\u9f20", "2756": "\u8fc7\u540e", "2757": "\u6478", "2758": "\u770b\u51fa", "2759": "\u6587\u4e2d", "2760": "\u51d1", "2761": "\u70e7", "2762": "\u75d5\u8ff9", "2763": "\u65e9\u9910\u5238", "2764": "\u51e0\u5206\u949f", "2765": "\u5370", "2766": "\u5e94\u4ed8", "2767": "LED\u5c4f", "2768": "\u67af\u71e5", "2769": "\u6267\u7740", "2770": "\u8ba2\u8d27", "2771": "\u603b\u4f1a", "2772": "\u914d\u9001", "2773": "\u6536\u96c6\u5668", "2774": "\u6311\u5254", "2775": "\u4e3e", "2776": "\u8010", "2777": "\u4e00\u65e9", "2778": "\u5899", "2779": "\u8fc7\u5206", "2780": "\u5012\u9709", "2781": "\u901a\u9053", "2782": "\u51ac\u5929", "2783": "\u5de6\u4fa7", "2784": "\u9694", "2785": "\u5acc", "2786": "\u6bd4\u4e0d\u4e0a", "2787": "\u53cd\u601d", "2788": "\u4e00\u5982\u65e2\u5f80", "2789": "\u7a76\u7adf", "2790": "\u6050\u6015", "2791": "2\u4e2a\u5c0f\u65f6", "2792": "\u542c\u5f97", "2793": "\u518d\u52a0\u4e0a", "2794": "\u65f6\u523b", "2795": "\u5168\u4e66", "2796": "1\u4e2a", "2797": "\u9886\u5bfc", "2798": "\u8db3\u8db3", "2799": "\u9910\u5177", "2800": "\u675c\u62c9\u62c9\u5347\u804c\u8bb0", "2801": "\u6d77\u9c9c", "2802": "\u6570\u636e", "2803": "\u6bd5\u6dd1\u654f", "2804": "\u9152\u5427", "2805": "\u591a\u591a", "2806": "\u5c3d\u5feb", "2807": "\u87d1\u8782", "2808": "\u5e7f\u573a", "2809": "\u60b2\u54c0", "2810": "\u611f\u89e6", "2811": "\u611f\u6168", "2812": "\u6127", "2813": "DOS", "2814": "\u54c1\u5473", "2815": "\u7ea7", "2816": "\u966a", "2817": "\u7ca5", "2818": "\u4f4f\u8fd9\u91cc", "2819": "\u7ed3\u5b9e", "2820": "\u7968", "2821": "\u65e0\u4eba", "2822": "\u5de5\u827a", "2823": "50", "2824": "\u62ff\u51fa", "2825": "\u4e3a\u6b64", "2826": "\u7cbe\u7ec6", "2827": "\u627f\u53d7", "2828": "\u4e0d\u597d\u610f\u601d", "2829": "\u8fd9\u65f6", "2830": "\u575a\u5b9a", "2831": "\u63a8", "2832": "\u4ece\u5c0f", "2833": "\u96c6\u6210", "2834": "\u6b63\u9762", "2835": "\u66f4\u4e3a", "2836": "\u5ba2\u623f\u90e8", "2837": "\u897f\u65b9", "2838": "\u4fe1\u5fc3", "2839": "\u5f53\u665a", "2840": "\u60f3\u50cf", "2841": "\u51b2\u7a81", "2842": "windows", "2843": "\u566a\u58f0", "2844": "\u72d7", "2845": "\u52a0\u6cb9", "2846": "\u57ce", "2847": "\u5435\u95f9", "2848": "\u78b0", "2849": "\u7eb8\u8d28", "2850": "\u8981\u4e70", "2851": "\u5fcd", "2852": "\u51bb", "2853": "\u6572", "2854": "\u66ff", "2855": "\u5236\u4f5c", "2856": "\u5730\u4e0b", "2857": "\u745e\u661f", "2858": "\u8425\u4e1a", "2859": "\u76d2\u5b50", "2860": "\u795e\u79d8", "2861": "\u66f4\u6709", "2862": "\u523b\u5f55", "2863": "\u9996\u9009", "2864": "\u666f\u89c2", "2865": "\u697c\u9053", "2866": "\u53cc\u4eba\u623f", "2867": "\u5916\u7f6e", "2868": "\u5238", "2869": "\u9898\u76ee", "2870": "\u9897\u661f", "2871": "\u80af", "2872": "\u529f\u592b", "2873": "\u9762\u524d", "2874": "\\", "2875": "\u505a\u51fa", "2876": "\u575a\u5f3a", "2877": "\u8001\u4eba", "2878": "\u5fc3\u7406\u5e08", "2879": "\u975e\u5e38\u68d2", "2880": "\u6253\u6298", "2881": "\u4ee3\u8868", "2882": "\u4e1c", "2883": "\u653f\u5e9c", "2884": "\u82af\u7247", "2885": "\u8fdb\u6b65", "2886": "\u6666\u6da9", "2887": "\u5347", "2888": "\u603b\u5171", "2889": "\u6709\u9650", "2890": "\u5355\u7eaf", "2891": "\u9752\u6625", "2892": "\u8fd9\u513f", "2893": "\u88c5\u673a", "2894": "\u636e", "2895": "\u4e34\u8857", "2896": "\u8eab\u4f53\u5065\u5eb7", "2897": "\u7bc7\u5e45", "2898": "\u4e30\u76db", "2899": "\u4e00\u74f6", "2900": "\u7b7e", "2901": "\u4e4b\u4e2d", "2902": "\u5947\u5999", "2903": "\u6709\u6548", "2904": "\u4e00\u6761\u8857", "2905": "\u5c31\u662f\u8fd9\u6837", "2906": "\u665a\u996d", "2907": "\u517b\u751f", "2908": "\u8fc7\u9053", "2909": "\u5047", "2910": "\u597d\u4e0d\u5bb9\u6613", "2911": "\u94f6\u5b50", "2912": "\u6f0f", "2913": "\u5e38\u8bc6", "2914": "\u53cd", "2915": "\u6574\u9f50", "2916": "\u6e38", "2917": "\u9664\u975e", "2918": "\u5c45\u4f4f", "2919": "\u8bf4\u6559", "2920": "\u90e8", "2921": "\u6210\u4eba", "2922": "\u5f00\u53d1\u533a", "2923": "\u884c\u7a0b", "2924": "\u6d17\u6f31", "2925": "\u6c7d\u8f66", "2926": "\u4e00\u5468", "2927": "\u5546\u52a1\u623f", "2928": "\u5236\u5ea6", "2929": "\u533b\u5b66", "2930": "\u94a2\u7434\u6f06", "2931": "\u5988", "2932": "\u6700\u65b0", "2933": "\u7b2c\u4e09\u6b21", "2934": "\u4e00\u5c0f\u65f6", "2935": "\u8bdd\u9898", "2936": "\u9650\u5236", "2937": "\u4e0a\u73ed", "2938": "\u65c1", "2939": "\u6e05\u7406", "2940": "\u51b2\u7740", "2941": "\u592a\u5435", "2942": "\u61d2\u5f97", "2943": "\u76f4", "2944": "\u6d1e", "2945": "USB\u63a5\u53e3", "2946": "\u5411\u5f80", "2947": "HDMI", "2948": "\u5ba2\u6c14", "2949": "\u4e00\u5806", "2950": "\u72ec\u7acb\u663e\u5361", "2951": "\u9a71\u52a8\u7a0b\u5e8f", "2952": "\u5bb3\u6015", "2953": "\u5934\u53d1", "2954": "\u4e00\u628a", "2955": "\u5de5\u5730", "2956": "\u51fa\u5165", "2957": "\u4f18\u8d8a", "2958": "\u7ed3\u5a5a", "2959": "\u5e73\u9759", "2960": "\u5957\u95f4", "2961": "\u575a\u51b3", "2962": "\u6cd5", "2963": "\u4e50\u8da3", "2964": "\u5f69\u8272", "2965": "\u72af", "2966": "\u8d70\u8fdb", "2967": "\u7ecf\u8425", "2968": "\u7ed3\u7b97", "2969": "\u660f\u6697", "2970": "\u5438\u70df", "2971": "\u540d\u4eba", "2972": "\u6536\u96c6", "2973": "\u6c42", "2974": "\u7ade\u4e89", "2975": "\u624b\u4e0a", "2976": "\u9192", "2977": "\u4e09\u5c81", "2978": "\u8d76\u5feb", "2979": "\u673a", "2980": "\u5173\u6389", "2981": "\u9c9c\u8273", "2982": "\u4e24\u665a", "2983": "\u53ef\u9760", "2984": "\u7559\u8a00", "2985": "\u5c06\u6765", "2986": "\u77db\u76fe", "2987": "\u7f1d\u9699", "2988": "\u4e2d\u9910", "2989": "\u6d3e", "2990": "\u8fc7\u763e", "2991": "\u516c\u5bd3", "2992": "\u8ba4\u53ef", "2993": "\u996d", "2994": "\u7b2c\u4e09", "2995": "\u5de5\u7a0b", "2996": "\u8981\u4e0d\u8981", "2997": "\u4e1c\u829d", "2998": "\u597d\u7b11", "2999": "\u4f5c\u6587", "3000": "\u4e00\u952e", "3001": "\u5373\u5c06", "3002": "\u3010", "3003": "\u3011", "3004": "\u8877\u5fc3", "3005": "\u5171\u540c", "3006": "\u59d0\u59d0", "3007": "\u91d1\u989d", "3008": "\u6bdb\u75c5", "3009": "\u6807\u914d", "3010": "\u6b32\u671b", "3011": "\u5206\u522b", "3012": "\u9501", "3013": "\u4e00\u4e00", "3014": "\u7834\u574f", "3015": "\u4e25\u8c28", "3016": "\u51b7\u51b0\u51b0", "3017": "\u65e0\u803b", "3018": "\u51fa\u5382", "3019": "\u65e5\u672c\u4eba", "3020": "\u6559\u4f1a", "3021": "\u9762\u677f", "3022": "\u8ba8\u8bba", "3023": "\u94a5\u5319", "3024": "\u6ce8\u91cd", "3025": "\u6709\u7279\u8272", "3026": "\u70ed\u91cf", "3027": "\u4e13\u5bb6", "3028": "\u5851\u6599\u611f", "3029": "\u611f\u4eba", "3030": "\u51cc\u6668", "3031": "\u601d\u8def", "3032": "\u5341\u5206\u949f", "3033": "\u7231\u4e0a", "3034": "\u5929\u6d25", "3035": "\u5e7c\u7a1a", "3036": "\u5c31\u662f\u8981", "3037": "\u5608\u6742", "3038": "\u8bfb\u8bfb", "3039": "\u5173\u95e8", "3040": "\u987a\u4fbf", "3041": "\u76f8\u5e94", "3042": "\u592a\u70c2", "3043": "\u5174\u594b", "3044": "\u5c0f\u5bb6\u4f19", "3045": "bios", "3046": "\u534f\u8c03", "3047": "\u7ec3\u4e60", "3048": "\u6211\u559c\u6b22", "3049": "\u65b0\u610f", "3050": "\u5212\u75d5", "3051": "\u8def\u8fb9", "3052": "\u7f3a\u9677", "3053": "\u52a8\u624b", "3054": "\u6263", "3055": "\u5f7b\u5e95", "3056": "\u4e00\u518d", "3057": "\u770b\u4e0a", "3058": "all", "3059": "rights", "3060": "reserved", "3061": "\u63d0\u8d27", "3062": "\u4f46\u613f", "3063": "\u521d", "3064": "\u95f7", "3065": "\u8db3\u4ee5", "3066": "\u5fe0\u5b9e", "3067": "\u60c5\u613f", "3068": "\u6765\u5230", "3069": "\u5730\u5904", "3070": "\u53e5", "3071": "\u516d", "3072": "\u654f\u611f", "3073": "\u5929\u624d", "3074": "\u5413", "3075": "\u6b20\u7f3a", "3076": "\u4eba\u95f4", "3077": "\u804c\u4e1a", "3078": "\u5f88\u5947\u602a", "3079": "\u53cc\u4eba\u95f4", "3080": "\u8ff7\u60d1", "3081": "\u9ad8\u4e2d", "3082": "\u4e0d\u65b9\u4fbf", "3083": "\u6253\u62db\u547c", "3084": "\u82af\u7247\u7ec4", "3085": "\u751f\u5b58", "3086": "\u4e13\u7528", "3087": "\u78e8\u7802", "3088": "\u9898", "3089": "\u9633\u5149", "3090": "\u6851\u62ff", "3091": "\u529b", "3092": "\u51c6", "3093": "\u5c31\u9910", "3094": "\u5199\u6210", "3095": "\u51fa\u8272", "3096": "\u7406\u6027", "3097": "\u9875\u9762", "3098": "\u4e92\u76f8", "3099": "\u86ee\u597d", "3100": "\u5f88\u9ad8\u5174", "3101": "\u6765\u56de", "3102": "\u592a\u9ebb\u70e6", "3103": "\u9644\u9001", "3104": "\u6bcf\u4e00\u4f4d", "3105": "\u7528\u4e0a", "3106": "\u6750\u8d28", "3107": "\u5f53\u4f60", "3108": "\u539f\u8457", "3109": "\u4e0d\u7231", "3110": "\u540c\u5fd7", "3111": "\u8ba1\u8f83", "3112": "\u7ecf\u6d4e\u578b", "3113": "\u88c5\u8ba2", "3114": "\u6765\u8bb2", "3115": "\u4e0d\u5feb", "3116": "\u4e00\u8f88\u5b50", "3117": "\u968f", "3118": "\u521d\u4e2d", "3119": "\u89d2\u843d", "3120": "\u6124\u6012", "3121": "\u8fc7\u65f6", "3122": "\u6559\u5b66", "3123": "\u4e2d\u5173\u6751", "3124": "\u516c\u9053", "3125": "\u76ee\u7684", "3126": "\u9891\u9053", "3127": "\u7834\u65e7", "3128": "\u5404\u9879", "3129": "\u5899\u58c1", "3130": "\u9886\u57df", "3131": "\u5927\u8fde", "3132": "\u65e0\u8da3", "3133": "\u5b81\u613f", "3134": "\u5bf9\u5e94", "3135": "\u80fd\u5426", "3136": "\u60b2\u4f24", "3137": "\u6570\u91cf", "3138": "\u7d66", "3139": "\u4e0d\u5fc5", "3140": "\u8d5a", "3141": "\u522b\u626d", "3142": "\u6734\u5b9e", "3143": "\u8d34\u5fc3", "3144": "\u539a\u9053", "3145": "\u4e0a\u5348", "3146": "\u5f7c\u6b64", "3147": "\u5b9e", "3148": "\u5bc6\u7801", "3149": "\u5c0f\u70b9", "3150": "\u97f3\u6548", "3151": "\u5b66\u95ee", "3152": "\u8bf4\u8bf4", "3153": "\u51fa\u4e8e", "3154": "\u7b7e\u5b57", "3155": "\u4e24\u95f4", "3156": "\u5ba2\u6808", "3157": "\u9910\u9986", "3158": "\u4e0d\u542b", "3159": "\u8ba1\u5212", "3160": "\u7b54\u66f0", "3161": "\u4e09\u6b21", "3162": "\u53eb\u6765", "3163": "\u5355\u8c03", "3164": "\u4e0b\u65b9", "3165": "\u9884\u671f", "3166": "\u5e8a\u4e0a\u7528\u54c1", "3167": "\u5e7f\u5927", "3168": "\u665a\u4e0a12\u70b9", "3169": "\u52a8", "3170": "\u96be\u95fb", "3171": "\u81ed\u5473", "3172": "\u8ddd", "3173": "\u4ea4\u6613", "3174": "ok", "3175": "\u771f\u5fc3", "3176": "\u5f85\u9047", "3177": "\u88c5\u597d", "3178": "\u80fd\u627e\u5230", "3179": "\u4e0d\u5f97\u4e86", "3180": "\u5730\u8bf4", "3181": "\u4e00\u7247", "3182": "300", "3183": "\u95ee\u5019", "3184": "\u529e\u516c\u5ba4", "3185": "\u673a\u578b", "3186": "\u51e0\u5bb6", "3187": "\u89e3\u8bfb", "3188": "\u6566\u714c", "3189": "\u5c0f\u718a", "3190": "\u84dd", "3191": "\u5f88\u9057\u61be", "3192": "\u521b\u9020", "3193": "\u7b2c\u4e09\u5929", "3194": "\u4e00\u5411", "3195": "\u672c\u5730", "3196": "\u5305\u542b", "3197": "\u6808\u6865", "3198": "\u6df7", "3199": "\u4fa7\u9762", "3200": "12", "3201": "\u56e0\u7d20", "3202": "\u6b63\u89c4", "3203": "\u5168\u56fd", "3204": "\u6b23\u6170", "3205": "\u63d2\u53e3", "3206": "\u5065\u8eab", "3207": "\u6bcf\u665a", "3208": "\u5934\u75bc", "3209": "N", "3210": "\u5f00\u542f", "3211": "\u624b\u6307", "3212": "\u5373\u4fbf", "3213": "\u7070\u8272", "3214": "\u8d77\u5e8a", "3215": "\u65f6\u671f", "3216": "\u7ea2\u8272", "3217": "\u5982\u540c", "3218": "KTV", "3219": "\u94fa", "3220": "\u9f50", "3221": "\u8bed\u6587", "3222": "\u6cbe", "3223": "\u6d4f\u89c8", "3224": "\u5916\u4f01", "3225": "\u4e00\u5927", "3226": "D", "3227": "\u4e2d\u73af", "3228": "\u9707\u64bc", "3229": "\u5546\u5bb6", "3230": "\u548b", "3231": "\u5496\u5561", "3232": "\u89c4\u5219", "3233": "\u4e25\u683c", "3234": "\u76f8\u53cd", "3235": "\u600e", "3236": "\u836f", "3237": "\u80c3\u53e3", "3238": "\u670d\u52a1\u8d39", "3239": "\u62a2\u8d2d", "3240": "\u539a\u91cd", "3241": "\u795e", "3242": "\u6392\u961f", "3243": "\u56fd\u60c5", "3244": "\u4fee\u8def", "3245": "\u8bf1\u60d1", "3246": "\u65cb\u8f6c", "3247": "24", "3248": "\u5b89\u6170", "3249": "\u4e0d\u770b", "3250": "\u6587\u91c7", "3251": "\u8d5a\u94b1", "3252": "\u9019", "3253": "\u5076\u7136", "3254": "MM", "3255": "\u80cc\u540e", "3256": "\u7070\u5c18", "3257": "\u5224\u65ad", "3258": "\u9ed1\u5c4f", "3259": "\u65e0\u6570", "3260": "\u73af\u4fdd", "3261": "ACER", "3262": "\u518d\u8bf4", "3263": "\u79df", "3264": "\u663e\u5b58", "3265": "\u96be\u88c5", "3266": "\u6e34\u671b", "3267": "\u5bb9\u91cf", "3268": "\u4e71\u4e03\u516b\u7cdf", "3269": "\u538b\u529b", "3270": "\u9065\u63a7\u5668", "3271": "\u4e0b\u964d", "3272": "@", "3273": "\u6807\u9898", "3274": "\u4f8b\u5982", "3275": "\u4fee\u597d", "3276": "\u635f\u5931", "3277": "\u5a92\u4f53", "3278": "sata", "3279": "\u4e09\u697c", "3280": "\u5e74\u8f7b\u4eba", "3281": "\u5931", "3282": "\u6539\u4e3a", "3283": "\u897f\u5f0f", "3284": "\u4e24\u79cd", "3285": "\u4e0a\u5e1d", "3286": "\u8003", "3287": "\u517b", "3288": "\u6295\u5165", "3289": "\u8f66\u7a0b", "3290": "\u901b", "3291": "\u56db\u5c81", "3292": "\u90ae\u4ef6", "3293": "\u8d54\u507f", "3294": "\u5173\u4e0a", "3295": "\u5730\u9053", "3296": "\u6d88\u6bd2", "3297": "\u4e0d\u582a", "3298": "2\u6b21", "3299": "\u76f8\u5904", "3300": "\u6446\u8bbe", "3301": "\u996e\u7528\u6c34", "3302": "\u89e3\u7b54", "3303": "\u5446", "3304": "\u5e73\u5e38", "3305": "160G", "3306": "\u53e5\u5b50", "3307": "\u9876", "3308": "\u82af", "3309": "\u6beb\u4e0d\u72b9\u8c6b", "3310": "\u67d0\u79cd", "3311": "\u51e0\u5f20", "3312": "6\u70b9", "3313": "\u771f\u4e0d\u9519", "3314": "\u6765\u81ea", "3315": "\u75db", "3316": "\u53d6\u5f97", "3317": "\u6e38\u6cf3", "3318": "\u2015", "3319": "50\u5143", "3320": "\u4f18\u826f", "3321": "\u4e00\u7897", "3322": "\u6709\u70b9\u50cf", "3323": "\u6240\u6709\u4eba", "3324": "\u809a\u5b50", "3325": "\u6ef4", "3326": "\u529d", "3327": "\u770b\u4e2d", "3328": "\u5173\u5fc3", "3329": "\u522b\u8bf4", "3330": "\u7b14\u4e0b", "3331": "\u4e0e\u5176", "3332": "hp", "3333": "\u5c0f\u4f19\u5b50", "3334": "\u8eab\u4efd\u8bc1", "3335": "\u4f53\u8d28", "3336": "\u4e34\u8fd1", "3337": "\u6bd4\u4f8b", "3338": "\u77e5\u8bc6\u70b9", "3339": "\u51b7\u6de1", "3340": "\u4e00\u5708", "3341": "\u9644\u8d60", "3342": "\u4eba\u610f", "3343": "\u7a7f\u63d2", "3344": "\u53d1\u6325", "3345": "\u4e00\u773c", "3346": "\u5c41\u80a1", "3347": "\u9762\u5305", "3348": "\u82f9\u679c", "3349": "\u592a\u96be", "3350": "\u4e1a\u4f59", "3351": "6\u5c81", "3352": "\u53d1\u8868", "3353": "\u5b54\u5b50", "3354": "\u53e4\u4ee3", "3355": "\u7b2c\u4e8c\u672c", "3356": "\u6a21\u4eff", "3357": "\u6709\u540d", "3358": "\u7a84", "3359": "\u773c\u6cea", "3360": "\u5904\u4e8e", "3361": "\u4e3b\u697c", "3362": "\u7b11\u8bdd", "3363": "\u4ed8\u94b1", "3364": "\u679c\u76d8", "3365": "\u8d22\u52a1", "3366": "\u773c\u524d", "3367": "\u5fc3\u75bc", "3368": "\u5b8c\u6bd5", "3369": "\u540d", "3370": "\u8d21\u732e", "3371": "\u6781\u529b", "3372": "\u8def\u7a0b", "3373": "\u957f\u6625", "3374": "\u4ee5\u5f80", "3375": "\u4ffa", "3376": "\u8bf4\u8fc7", "3377": "\u6563", "3378": "2\u5c0f\u65f6", "3379": "\u800c\u53c8", "3380": "\u8f9b\u82e6", "3381": "\u8d27\u7269", "3382": "\u5e73\u53f0", "3383": "300\u5143", "3384": "\u666e\u904d", "3385": "\u901a\u75c5", "3386": "\u665a\u4e0a11\u70b9", "3387": "\u5929\u4e0b", "3388": "\u6c14\u606f", "3389": "\u5f88\u91cd\u8981", "3390": "\u6545\u610f", "3391": "\u516d\u82af", "3392": "\u4e8b\u5b9e\u4e0a", "3393": "\u4e00\u584c\u7cca\u6d82", "3394": "\u83dc\u9e1f", "3395": "\u6c89\u91cd", "3396": "\u4f20\u771f", "3397": "30", "3398": "\u793c\u5bbe\u90e8", "3399": "\u4e0d\u901a", "3400": "\u4f20\u8bb0", "3401": "\u4ef7\u503c\u89c2", "3402": "\u7761\u4e0d\u7740", "3403": "\u6ee5", "3404": "\u754c\u9762", "3405": "\u4ee5\u81f3\u4e8e", "3406": "\u5c16\u6c99\u5480", "3407": "\u7259\u5237", "3408": "\u6cf3\u6c60", "3409": "\u80cc\u9762", "3410": "\u5546\u4e1a\u533a", "3411": "\u5c4b\u91cc", "3412": "\u5982\u4eca", "3413": "\u771f\u76f8", "3414": "\u6821\u8f66", "3415": "\u653e\u5230", "3416": "\u63d2\u5ea7", "3417": "\u7761\u524d", "3418": "\u5bf9\u5176", "3419": "\u963f", "3420": "\u4f1f\u5927", "3421": "\u6309\u94ae", "3422": "\u81ea\u4fe1", "3423": "\u53ef\u8bfb\u6027", "3424": "4\u661f\u7ea7", "3425": "\u4fee\u7406", "3426": "\u5373\u53ef", "3427": "ThinkPad", "3428": "T", "3429": "\u5c01", "3430": "\u5927\u5b66\u751f", "3431": "\u73a9\u5177", "3432": "usb", "3433": "\u6211\u53ef\u4ee5", "3434": "\u6545", "3435": "\u51e0\u70b9", "3436": "\u5382\u5bb6", "3437": "\u597d\u73a9", "3438": "http", "3439": "\u8f66\u4e0a", "3440": "\u96be\u627e", "3441": "\u8fc5\u901f", "3442": "\u65e0\u654c", "3443": "\u5b64\u72ec", "3444": "1\u5c81", "3445": "\u751f\u65e5", "3446": "5\u5929", "3447": "\u6ce8\u610f\u5230", "3448": "\u9a84\u50b2", "3449": "\u8ff7\u832b", "3450": "\u4e00\u7cfb\u5217", "3451": "\u60ca\u4eba", "3452": "\u70b9\u5fc3", "3453": "\u8fc7\u9ad8", "3454": "\u8c03\u6362", "3455": "\u9526\u6c5f", "3456": "\u4eb2\u60c5", "3457": "\u6e05\u65b0", "3458": "\u79d1\u666e", "3459": "\u60f3\u7740", "3460": "\u51fa\u79df", "3461": "THINKPAD", "3462": "\u4e00\u7c7b", "3463": "\u8bd5\u8bd5\u770b", "3464": "\u5047\u671f", "3465": "\u540d\u8457", "3466": "\u5916\u56fd\u4eba", "3467": "\u8bf8\u591a", "3468": "\u8d34\u819c", "3469": "\u626f", "3470": "\u6b64\u65f6", "3471": "\u8c01\u77e5\u9053", "3472": "\u4fee\u517b", "3473": "\u5ff5", "3474": "\u641e\u4e0d\u61c2", "3475": "\u83ab\u540d\u5176\u5999", "3476": "\u8fd8\u6ca1", "3477": "\u653f\u6cbb", "3478": "\u60f3\u4e0d\u5230", "3479": "\u987a\u7545", "3480": "\u591c\u665a", "3481": "\u60f3\u8d77\u6765", "3482": "\u6c89", "3483": "\u4e24\u5e74", "3484": "\u5403\u529b", "3485": "\u6210\u5c31", "3486": "\u539f\u5219", "3487": "\u7075\u654f", "3488": "\u66f8", "3489": "\u5410", "3490": "\u6293", "3491": "\u8bb2\u7a76", "3492": "\u6709\u4e9b\u4eba", "3493": "\u8ba4", "3494": "\u8f71\u8f98", "3495": "\u534a\u4e2a", "3496": "\u4e2d\u5b66", "3497": "\u9152", "3498": "\u62db\u724c", "3499": "\u6563\u70ed\u5668", "3500": "\u614e\u91cd", "3501": "\u5e7c\u513f", "3502": "\u5149\u7ebf", "3503": "\u5e86\u5e78", "3504": "\u83dc\u5355", "3505": "\u6253\u6270", "3506": "8\u70b9", "3507": "\u516c\u4ea4", "3508": "1\u4e2a\u5c0f\u65f6", "3509": "\u6311\u9009", "3510": "\u5e02\u9762\u4e0a", "3511": "\u5f62\u6210", "3512": "\u672c\u8d28", "3513": "\u592a\u597d\u4e86", "3514": "3999", "3515": "\u6fc0\u6d3b", "3516": "\u7ecf\u7edc", "3517": "\u9001\u8d27\u5458", "3518": "\u5185\u80c6", "3519": "\u5ffd\u7565", "3520": "\u6709\u793c\u8c8c", "3521": "\u6ca1\u9519", "3522": "\u51ed", "3523": "\u641e\u9519", "3524": "\u624b\u6bb5", "3525": "ghost", "3526": "\u9898\u6750", "3527": "\u5757", "3528": "\u66f4\u91cd\u8981", "3529": "\u4e4b\u6240\u4ee5", "3530": "\u5883\u754c", "3531": "\u5c0f\u4e8b", "3532": "\u5148\u662f", "3533": "\u6e05\u9192", "3534": "\u89d2\u8272", "3535": "\u4e00\u573a", "3536": "\u6563\u6b65", "3537": "\u5e94\u5f53", "3538": "\u5b66\u672f", "3539": "\u5e78\u4e8f", "3540": "\u6539\u6b63", "3541": "\u60ca\u8bb6", "3542": "\u9f13\u52b1", "3543": "\u996e\u6599", "3544": "\u7545\u9500\u4e66", "3545": "\u62c6\u5f00", "3546": "\u51e0\u53e5", "3547": "\u624b\u5de5", "3548": "\u666e\u901a\u8bdd", "3549": "\u8bfb\u4e00\u8bfb", "3550": "\u4e86\u89e3\u5230", "3551": "\u539f\u5148", "3552": "\u56db\u4e2a", "3553": "intel", "3554": "\u5e26\u6709", "3555": "\u5168\u5957", "3556": "\u5047\u65e5", "3557": "\u5927\u58f0", "3558": "\u95e8\u536b", "3559": "\u9ad8\u5ea6", "3560": "\u9084", "3561": "\u9ed1\u6697", "3562": "\u5b8c\u597d", "3563": "\u81ea\u89c9", "3564": "\u6de1", "3565": "\u5f00\u6c34", "3566": "\u843d\u540e", "3567": "\u843d", "3568": "\u8f93\u5165", "3569": "\u82b1\u6d12", "3570": "\u592a\u539f", "3571": "\u8fd0\u52a8", "3572": "\u8d70\u5411", "3573": "\u4e1c\u839e", "3574": "\u4e0d\u6210", "3575": "\u7b11\u8138", "3576": "\u7838", "3577": "\u8bd7\u8bcd", "3578": "\u6253\u6b7b", "3579": "\u5404\u79cd\u5404\u6837", "3580": "\u73ed", "3581": "\u72d7\u72d7", "3582": "\u7b80\u4ecb", "3583": "\u54af", "3584": "\u4e0d\u4f73", "3585": "\u88c5\u6f62", "3586": "\u65ad", "3587": "\u6000\u5ff5", "3588": "\u56fd\u4eba", "3589": "\u5317", "3590": "\u672a\u5fc5", "3591": "\u6c14\u6b7b", "3592": "\u7ed9\u6211", "3593": "\u6253\u5370", "3594": "\u7279\u5730", "3595": "\u8106\u5f31", "3596": "\u6c61\u6e0d", "3597": "\u5bb9\u5fcd", "3598": "\u6d53\u91cd", "3599": "\u8d1f", "3600": "\u90d1\u5dde", "3601": "\u76f4\u8fbe", "3602": "\u8863\u67dc", "3603": "150", "3604": "\u89c6\u89c9", "3605": "\u9910", "3606": "\u7834\u635f", "3607": "\u9b45\u529b", "3608": "\u5f71\u5b50", "3609": "\u7422\u78e8", "3610": "\u8f83\u4e3a", "3611": "\u9732\u5929", "3612": "\u5168\u5bb6", "3613": "\u5927\u536b", "3614": "\u642c\u5230", "3615": "\u5f88\u611f\u52a8", "3616": "CHECK", "3617": "\u9ad8\u901f", "3618": "\u683c\u5f0f\u5316", "3619": "\u90fd\u4e00\u6837", "3620": "200", "3621": "\u9910\u5238", "3622": "\u5e72\u8106", "3623": "\u5de5\u5177", "3624": "\u4e0d\u8010\u70e6", "3625": "\u5192", "3626": "\u96f6", "3627": "\u5c55\u5f00", "3628": "\u8a00", "3629": "\u5d29\u6e83", "3630": "\u968f\u610f", "3631": "\u5c01\u76ae", "3632": "\u6298", "3633": "\u770b\u4e00\u770b", "3634": "\u5e95", "3635": "\u8bed\u6c14", "3636": "\u79ef\u5206", "3637": "\u540d\u6c14", "3638": "\u62fc", "3639": "\u56fe\u50cf", "3640": "\u904e", "3641": "\u8aaa", "3642": "\u56e0\u70ba", "3643": "\u53cd\u5149", "3644": "\u8fd9\u4e2a\u4e16\u754c", "3645": "\u80ae\u810f", "3646": "\u4e00\u65e6", "3647": "15\u5143", "3648": "\u4f60\u597d", "3649": "\u51e0\u4f4d", "3650": "\u8282\u76ee", "3651": "\u904d", "3652": "\u770b\u4e86\u770b", "3653": "\u5927\u9646", "3654": "\u5220\u9664", "3655": "\u8d85\u51fa", "3656": "\u5c34\u5c2c", "3657": "\u53ea\u4e0d\u8fc7", "3658": "\u5f31", "3659": "\u533a\u57df", "3660": "\u592a\u70ed", "3661": "\u9a97", "3662": "\u7a33\u91cd", "3663": "\u4e66\u67b6", "3664": "5\u5143", "3665": "\u8d54", "3666": "\u4ece\u6ca1", "3667": "\u62ff\u8d70", "3668": "\u5269\u4e0b", "3669": "\u547d", "3670": "26", "3671": "\u6d32\u9645", "3672": "\u5154\u5b50", "3673": "\u542f\u8499", "3674": "\u524d\u63d0", "3675": "\u7b49\u4e8e", "3676": "\u5a13\u5a13", "3677": "\u53d1\u9ec4", "3678": "\u62ff\u53bb", "3679": "\u8fb9\u7f18", "3680": "\u87ba\u4e1d", "3681": "\u56db\u661f\u9152\u5e97", "3682": "\u8003\u5bdf", "3683": "\u8f7b\u6613", "3684": "\u4fe1\u5ff5", "3685": "\u8c03\u67e5", "3686": "\u5148\u8fdb", "3687": "\u523b\u753b", "3688": "\u5c0f\u8d39", "3689": "\u6d41", "3690": "\u5f88\u7cdf\u7cd5", "3691": "\u660e", "3692": "\u4e66\u8bc4", "3693": "\u4ece\u524d", "3694": "\u6367", "3695": "\u5927\u7247", "3696": "\u96c6\u6210\u663e\u5361", "3697": "\u6c34\u6e29", "3698": "\u9057\u61be\u7684\u662f", "3699": "\u597d\u4e0d\u597d", "3700": "\u7075\u9b42", "3701": "\u62bd", "3702": "\u5a5a\u59fb", "3703": "\u8c03\u4f83", "3704": "\u4eb2\u8eab", "3705": "3\u5c0f\u65f6", "3706": "\u5348\u9910", "3707": "\u4e24\u5957", "3708": "\u51fa\u540d", "3709": "\u5c55\u73b0", "3710": "\u50bb", "3711": "\u4e0d\u53ef\u601d\u8bae", "3712": "\u6e7f", "3713": "\u76d6\u5b50", "3714": "\u751f\u75c5", "3715": "\u5f00\u653e", "3716": "600", "3717": "\u6d41\u6c34", "3718": "\u62db\u547c", "3719": "\u4e0d\u826f", "3720": "\u9c7c", "3721": "2\u53f7", "3722": "\u4f59", "3723": "\u5feb\u6377\u9152\u5e97", "3724": "\u4e00\u65b9\u9762", "3725": "\u7ae5\u8bdd", "3726": "\u4e00\u5904", "3727": "\u9a6c\u9a6c\u864e\u864e", "3728": "\u6253\u6765", "3729": "\u519c\u6751", "3730": "\u7231\u4eba", "3731": "\u62dc\u6258", "3732": "1\u5143", "3733": "\u8def\u4e0a", "3734": "\u5728\u5bb6", "3735": "\u6587\u660e", "3736": "\u51fa\u6c34", "3737": "\u89c6\u91ce", "3738": "\u7528\u5904", "3739": "\u5b63\u8282", "3740": "\u6c5f\u666f", "3741": "\u53ef\u53e3", "3742": "\u65b0\u4e66", "3743": "=", "3744": "\u770b\u5f85", "3745": "\u624b\u518c", "3746": "\u8fd9\u5bb6\u5e97", "3747": "\u54ea\u4e9b", "3748": "\u5435\u9192", "3749": "\u5df2\u6709", "3750": "\u611f\u53f9", "3751": "acer", "3752": "\u9ad8\u624b", "3753": "\u5439\u98ce\u673a", "3754": "\u6db2\u6676\u7535\u89c6", "3755": "\u56fa\u5b9a", "3756": "1024", "3757": "\u7269\u8d28", "3758": "\u539f\u6587", "3759": "\u524d\u4e00\u5929", "3760": "\u8ff7\u4f60", "3761": "\u4fbf\u643a", "3762": "\u6279\u5224", "3763": "\u4f5c\u51fa", "3764": "\u5357\u6000\u747e", "3765": "\u65c5\u5ba2", "3766": "\u624b\u5370", "3767": "\u4efb\u4f55\u4eba", "3768": "\u539f\u4ee5\u4e3a", "3769": "X200", "3770": "\u5e03", "3771": "\u6b63\u54c1", "3772": "\u4fc3\u9500", "3773": "\u9ec4\u91d1", "3774": "\u4e0b\u96e8", "3775": "and", "3776": "\u597d\u670b\u53cb", "3777": "\u4eba\u5fc3", "3778": "\u5f52", "3779": "\u96e8", "3780": "\u5bbd\u5bb9", "3781": "\u94bb\u77f3", "3782": "\u5efa\u8bbe", "3783": "\u8f66\u5e93", "3784": "\u539f\u88c5\u5305", "3785": "\u4eba\u624d", "3786": "\u663e\u793a\u5668", "3787": "\u5feb\u70b9", "3788": "\u597d\u53cb", "3789": "\u8fd9\u8fb9", "3790": "\u6c99\u6ee9", "3791": "\u6d6a\u6f2b", "3792": "\u62ff\u8d77", "3793": "\u4e2d\u9910\u5385", "3794": "\u8ba2\u5355\u53f7", "3795": "12\u5bf8", "3796": "\u7acb\u9a6c", "3797": "\u5e94\u6709", "3798": "\u6bd5\u4e1a", "3799": "20\u5757", "3800": "\u6697\u70b9", "3801": "\u72c2", "3802": "\u4e4f\u5473", "3803": "\u955c\u5b50", "3804": "\u8bfb\u5230", "3805": "\u5b8f\u57fa", "3806": "\u6c14\u6d3e", "3807": "\u642c", "3808": "\u60ec\u610f", "3809": "\u5357\u65b9", "3810": "\u591a\u597d", "3811": "\u5c40", "3812": "\u5b81\u9759", "3813": "\u638c", "3814": "\u601d", "3815": "\u7eff\u8272", "3816": "\u4e24\u4e2a\u5b57", "3817": "\u800c\u6765", "3818": "\u6df1\u5965", "3819": "\u6027", "3820": "\u56fe\u4e66\u9986", "3821": "\u5b9a\u4f4d", "3822": "\u5973\u670b\u53cb", "3823": "\u7231\u73b2", "3824": "\u6307\u70b9", "3825": "\u5927\u53a6", "3826": "\u957f\u4e45", "3827": "\u8fdb\u51fa", "3828": "3\u4e2a\u5c0f\u65f6", "3829": "\u53d9\u4e8b", "3830": "\u5fc5\u7136", "3831": "\u6574\u6539", "3832": "\u665a\u4e0a10\u70b9", "3833": "\u949f", "3834": "\u6d53\u539a", "3835": "\u4f11\u95f2", "3836": "\u65e0\u5173", "3837": "\u675c\u6bd4", "3838": "\u53cb\u597d", "3839": "\u9119\u89c6", "3840": "14", "3841": "\u6709\u76ca", "3842": "\u6050\u9f99", "3843": "\u53ef\u6076", "3844": "\u6574\u6574", "3845": "\u5e95\u5ea7", "3846": "\u4e0d\u8be5", "3847": "\u8bcd\u6c47", "3848": "\u624e\u5b9e", "3849": "\u91cd\u542f", "3850": "\u5916\u5305", "3851": "\u70e7\u70e4", "3852": "\u786e", "3853": "\u6781\u597d", "3854": "\u6d41\u6cea", "3855": "\u8d28\u91cf\u597d", "3856": "\u542c\u89c1", "3857": "2009", "3858": "\u5939", "3859": "\u574e\u5777", "3860": "\u53cc\u5c42", "3861": "\u60f3\u8c61\u529b", "3862": "\u4e8b\u4e1a", "3863": "\u51fa\u4e66", "3864": "\u8dd1\u5230", "3865": "\u82b1\u94b1", "3866": "\u4e00\u4eba", "3867": "\u8d28\u4fdd", "3868": "2000", "3869": "\u5c55\u793a", "3870": "\u5728\u610f", "3871": "\u603b\u800c\u8a00\u4e4b", "3872": "\u89c2\u770b", "3873": "\u5f53\u4ee3", "3874": "\u591c", "3875": "\u559c\u6765\u767b", "3876": "\u539a\u5b9e", "3877": "\u552f\u72ec", "3878": "\u697c\u68af", "3879": "\u89e6\u6478\u5c4f", "3880": "\u4e0d\u52a8", "3881": "30\u5143", "3882": "\u641c", "3883": "\u660e\u671d", "3884": "\u627f\u62c5", "3885": "\u6301\u7eed", "3886": "\u82cd\u8747", "3887": "\u56db\u672c", "3888": "\u6c34\u7ba1", "3889": "\u699c\u6837", "3890": "\u6587", "3891": "\u60c5", "3892": "\u4e66\u7b7e", "3893": "\u6bd4\u55bb", "3894": "\u90a3\u513f", "3895": "\u4e0b\u8f66", "3896": "\u7eed", "3897": "\u8d85\u5927", "3898": "\u591c\u95f4", "3899": "\u5730\u533a", "3900": "\u5c4b\u5b50", "3901": "\u773c", "3902": "\u521a\u624d", "3903": "\u73b0\u573a", "3904": "\u7537\u53cb", "3905": "\u7455\u75b5", "3906": "\u4e00\u4e2a\u661f\u671f", "3907": "\u6d4e\u5357", "3908": "\u65b9", "3909": "U\u76d8", "3910": "\u4f18\u96c5", "3911": "\u5e73\u5b9e", "3912": "\u6bd4\u8d77", "3913": "\u5c0f\u5deb", "3914": "\u98de", "3915": "\u67e5\u8be2", "3916": "\u5b89\u5168\u611f", "3917": "\u8bbe", "3918": "\u5ba2\u5385", "3919": "\u8bda\u4fe1", "3920": "\u6574\u5957", "3921": "\u524d\u6bb5", "3922": "\u63a5\u9001", "3923": "\u68a6", "3924": "\u4f17\u591a", "3925": "\u5e76\u672a", "3926": "\u5e94\u5bf9", "3927": "\u552e\u540e\u670d\u52a1", "3928": "\u670d\u52d9\u54e1", "3929": "\u91d1\u9675\u6ea7\u9633\u5bbe\u9986", "3930": "\u6807\u7b7e", "3931": "\u80f6", "3932": "\u62b1", "3933": "\u4e0d\u505a", "3934": "\u518d\u8bfb", "3935": "\u613f\u671b", "3936": "1g", "3937": "\u4f19\u4f34", "3938": "\u6253\u52a8", "3939": "\u5c0f\u672c", "3940": "\u89c1\u89e3", "3941": "\u6709\u5174\u8da3", "3942": "\u602a\u5473", "3943": "\u5835", "3944": "\u51cf\u5c11", "3945": "\u5c71", "3946": "\u4ee3", "3947": "\u78e8", "3948": "\u5c31\u662f\u8bf4", "3949": "\u81ea\u79c1", "3950": "\u505a\u4eba", "3951": "\u4ece\u6b64", "3952": "\u5355\u4eba\u95f4", "3953": "\u4f4e\u70b9", "3954": "10\u5757", "3955": "\u56f0\u60d1", "3956": "\u6000\u7740", "3957": "\u5236\u51b7", "3958": "\u5f3a\u608d", "3959": "11", "3960": "\u5b58", "3961": "\u597d\u4e9b", "3962": "\u5fc5", "3963": "\u9c9c\u660e", "3964": "\u65b0\u4eba", "3965": "\u8a00\u8bed", "3966": "\u8d85\u8d8a", "3967": "\u4e3a\u4eba", "3968": "\u65b0\u9896", "3969": "\u91cd\u5e86", "3970": "\u5f00\u53d1", "3971": "\u987a\u624b", "3972": "\u6df1\u611f", "3973": "\u8f66\u8d39", "3974": "\u72ed\u5c0f", "3975": "\u8fde\u9501", "3976": "\u7b80\u7ea6", "3977": "\u5e7b\u60f3", "3978": "\u4ece\u4e8b", "3979": "\u5c0f\u59d1\u5a18", "3980": "\u5371\u9669", "3981": "\u76d6\u7ae0", "3982": "\u65e5\u8bb0", "3983": "\u813e\u6c14", "3984": "\u5c81\u6708", "3985": "\u8d70\u8fc7", "3986": "\u5899\u7eb8", "3987": "\u997f", "3988": "4\u5206", "3989": "\u6dfb\u52a0", "3990": "\u4e00\u5230", "3991": "\u6700\u4f4e", "3992": "\u4e0a\u697c", "3993": "320G", "3994": "\u5965\u8fd0", "3995": "\u4e2d\u89c4\u4e2d\u77e9", "3996": "\u8da3\u5473\u6027", "3997": "\u5c16", "3998": "\u8fd0\u8f6c", "3999": "\u4e00\u9635", "4000": "\u8ddf\u98ce", "4001": "\u79f0\u8d5e", "4002": "\u6597\u4e89", "4003": "\u7b2c\u4e00\u90e8", "4004": "\u623f\u5c4b", "4005": "\u524d\u5929", "4006": "\u603b\u90e8", "4007": "\u4e0d\u5206", "4008": "\u7a7a\u767d", "4009": "sony", "4010": "\u611f\u60f3", "4011": "\u73cd\u85cf", "4012": "\u7ec6", "4013": "\u6742", "4014": "\u5e78\u8fd0", "4015": "\u966a\u4f34", "4016": "\u5e8f", "4017": "\u770b\u6211", "4018": "\u4e00\u4ee3", "4019": "\u7686", "4020": "\u628a\u63e1", "4021": "\u5f00\u5230", "4022": "\u518d\u6709", "4023": "\u8bd7", "4024": "\u4e00\u5927\u5806", "4025": "\u6324", "4026": "\u5f97\u77e5", "4027": "\u8bda\u6073", "4028": "\u7591\u95ee", "4029": "\u4eba\u54c1", "4030": "\u5927\u697c", "4031": "\u91d1\u94b1", "4032": "40\u5143", "4033": "\u4e00\u70b9\u513f", "4034": "\u4e0d\u5dee", "4035": "\u9ec4\u8272", "4036": "\u5c4b", "4037": "\u7236\u4eb2", "4038": "\u8350", "4039": "\u6d88\u9063", "4040": "\u897f\u9910\u5385", "4041": "\u7ffb\u4e86\u7ffb", "4042": "\u8131\u79bb", "4043": "\u4fe1\u8d56", "4044": "\u4fdd\u4fee", "4045": "\u4fe1\u8a89", "4046": "\u5fae\u5fae", "4047": "\u6709\u9053\u7406", "4048": "C", "4049": "\u76ee\u5f55", "4050": "\u63a5\u7535\u8bdd", "4051": "\u4e00\u5bb6\u4eba", "4052": "\u5c0f\u6c14", "4053": "\u8bd5\u7528", "4054": "\u6b64\u5916", "4055": "\u5408\u7b97", "4056": "\u7740\u6025", "4057": "\u5141\u8bb8", "4058": "\u7761\u7720", "4059": "\u5386\u7a0b", "4060": "\u8d85\u9ad8", "4061": "\u603b\u673a", "4062": "\u51fa\u53e3", "4063": "\u4ece\u672a", "4064": "\u8d1f\u9762", "4065": "\u8fd8\u539f", "4066": "\u4e0d\u8981\u4e70", "4067": "\u7528\u5230", "4068": "\u6c14\u6c1b", "4069": "\u4e07\u4e00", "4070": "\u6df1\u601d", "4071": "\u9ed8\u8ba4", "4072": "\u4ed6\u4eba", "4073": "\u6c61\u8ff9", "4074": "\u4e0a\u5b66", "4075": "\u7535\u6e90\u7ebf", "4076": "\u4f55\u51b5", "4077": "\u7f20", "4078": "\u4e0d\u77e5\u6240\u4e91", "4079": "400", "4080": "\u548c\u8c10", "4081": "\u529f\u5e95", "4082": "\u63a8\u51fa", "4083": "\u53ef\u60f3\u800c\u77e5", "4084": "\u9762\u5b50", "4085": "\u56de\u6765\u540e", "4086": "\u670d", "4087": "\u5728\u5bb6\u91cc", "4088": "\u5f53\u4eca", "4089": "\u8bed\u6cd5", "4090": "\u4ece\u4e00", "4091": "\u6548\u679c\u597d", "4092": "\u6559\u5e08", "4093": "\u7406\u8d22", "4094": "\u5927\u81f4", "4095": "\u4e00\u9897", "4096": "\u4e09\u6bdb", "4097": "\u70ed\u70b9", "4098": "\u914d\u6709", "4099": "\u8d34\u5207", "4100": "\u901a", "4101": "\u4e22\u4e86", "4102": "\u7559\u7ed9", "4103": "\u82cf\u5dde", "4104": "\u6c92", "4105": "\u5584\u826f", "4106": "\u53c2\u4e0e", "4107": "\u80b2\u513f", "4108": "\u62dc\u8bfb", "4109": "\u89e6\u63a7\u677f", "4110": "\u53ef\u6c14", "4111": "\u665a\u70b9", "4112": "\u542c\u4e0d\u5230", "4113": "\u6f14\u7ece", "4114": "\u591c\u666f", "4115": "\u90ae\u5c40", "4116": "\u53cc\u4eba", "4117": "\u604b\u7231", "4118": "O", "4119": "\u4e1c\u697c", "4120": "\u6ce1", "4121": "\u5851\u9020", "4122": "\u6444\u5f71", "4123": "\u5199\u6cd5", "4124": "\u5360\u7528", "4125": "\u7231\u60c5\u6545\u4e8b", "4126": "\u5f00\u5934", "4127": "\u6000\u5b55", "4128": "\u786c\u76d8\u5206\u533a", "4129": "\u771f\u5b9e\u6027", "4130": "\u6210\u5206", "4131": "\u7b2c\u4e00\u65f6\u95f4", "4132": "\u6742\u4e71", "4133": "\u71ac", "4134": "3\u82af", "4135": "\u8981\u6b7b", "4136": "\u9886\u73ed", "4137": "\u804a", "4138": "\u656c\u4f69", "4139": "\u5c0f\u9e21", "4140": "\u8ffd\u6367", "4141": "\u6781\u4e3a", "4142": "\u660e\u4eae", "4143": "\u56db\u5468", "4144": "\u8001\u5b9e\u8bf4", "4145": "\u5546\u4e1a\u8857", "4146": "\u884c\u8d27", "4147": "\u571f", "4148": "to", "4149": "\u53eb\u505a", "4150": "\u4e07\u8c6a", "4151": "\u624b\u6cd5", "4152": "\u55b7", "4153": "\u540c\u611f", "4154": "\u9875", "4155": "\u9ec4", "4156": "2\u5143", "4157": "\u80e1\u540c", "4158": "\u6bcf\u4eba", "4159": "200\u5757", "4160": "\u7ec3", "4161": "\u59bb\u5b50", "4162": "\u4f73\u671f", "4163": "\u5c0f\u52a8\u7269", "4164": "\u4e00\u8d77\u53bb", "4165": "\u8d70\u8d70", "4166": "\u9053\u8def", "4167": "\u770b\u597d", "4168": "\u7f8e\u98df", "4169": "\u72ec\u5230", "4170": "\u76f8\u4f3c", "4171": "\u5904\u5904", "4172": "\u75af\u72c2", "4173": "\u786e\u5207", "4174": "\u9759\u97f3", "4175": "\u80cc\u5149", "4176": "\u76f8\u4e92", "4177": "\u4e8c\u661f", "4178": "\u65ad\u7535", "4179": "7\u70b9", "4180": "\u5c1a", "4181": "\u83dc\u54c1", "4182": "\u6b63\u5b97", "4183": "IN", "4184": "\u89c1\u8bc6", "4185": "\u4e24\u53f0", "4186": "\u5b83\u4eec", "4187": "\u5bc4\u5b58", "4188": "\u6d77\u6e2f\u57ce", "4189": "\u52a1\u5fc5", "4190": "\u6e05\u723d", "4191": "\u7b2c\u4e00\u8f91", "4192": "\u6df1\u591c", "4193": "\u641e\u597d", "4194": "2\u95f4", "4195": "\u6027\u8d28", "4196": "9.5\u5c0f\u65f6", "4197": "\u5546\u52a1\u673a", "4198": "\u8bd1\u8005", "4199": "\u523a\u9f3b", "4200": "\u7231\u597d\u8005", "4201": "\u82f1\u96c4", "4202": "\u751a\u8fdc", "4203": "\u8fd9\u4e00\u6b21", "4204": "\u4eae\u4e3d", "4205": "10\u5929", "4206": "\u66f4\u9ad8", "4207": "\u5c11\u5e74", "4208": "\u540c\u884c", "4209": "\u57ab", "4210": "\u6307\u5b9a", "4211": "\u534a\u5e74", "4212": "\u96be\u770b", "4213": "\u5904\u7406\u5668", "4214": "\u8e0f\u5b9e", "4215": "\u8bf4\u51fa", "4216": "\u59d3\u540d", "4217": "\u53f7\u7801", "4218": "\u88c5\u7f6e", "4219": "\u559c\u597d", "4220": "\u5bf9\u7167", "4221": "\u8bfb\u76d8", "4222": "\u8857", "4223": "\u62e5\u6324", "4224": "\u4e00\u5206\u94b1", "4225": "sis", "4226": "\u79d8\u5bc6", "4227": "\u64cd\u4f5c\u6027", "4228": "\u7ba1\u7406\u5c42", "4229": "\u591a\u6570", "4230": "\u6613\u4e2d\u5929", "4231": "\u4e1d\u6beb", "4232": "\u5927\u4f53", "4233": "\u4e39\u4e1c", "4234": "\u653e\u677e", "4235": "\u5f25\u8865", "4236": "\u8d77\u4f0f", "4237": "\u817f", "4238": "\u8d70\u4eba", "4239": "\u56e2\u961f", "4240": "\u75c5", "4241": "\u5916\u52a0", "4242": "\u6fc0\u52a8", "4243": "\u5728\u4e4e", "4244": "\u8282\u80fd", "4245": "\u65e0\u4e00", "4246": "\u901a\u7528", "4247": "\u8f66\u5b50", "4248": "\u9053\u5fb7", "4249": "&#", "4250": "\u60c5\u666f", "4251": "\u7b2c\u56db", "4252": "\u98ce", "4253": "\u8fd1\u671f", "4254": "\u7406\u667a", "4255": "\u7b7e\u7ea6", "4256": "\u9992\u5934", "4257": "\u5927\u7b11", "4258": "\u4e2d\u5b66\u751f", "4259": "\u6795\u5957", "4260": "5\u661f", "4261": "\u8eab\u4efd", "4262": "\u4e3a\u4f60", "4263": "\u7ed3\u675f\u4e86", "4264": "\u4e0b\u69bb", "4265": "\u5de7\u514b\u529b", "4266": "\u84dd\u8272", "4267": "2008\u5e747\u670831\u65e5", "4268": "\u89c2\u666f", "4269": "\u666e\u53ca", "4270": "8\u53f7", "4271": "\u7edf\u8ba1", "4272": "\u5de5\u4eba", "4273": "\u8272\u6212", "4274": "\u4e0b\u6c34\u9053", "4275": "\u8ba4\u77e5", "4276": "31\u5c81", "4277": "\u65b0\u624b", "4278": "\u501f\u7ed9", "4279": "\u611f", "4280": "\u4f1a\u8ba1", "4281": "\uffe5", "4282": "\u6e05\u6e05\u695a\u695a", "4283": "\u7b2c\u4e8c\u904d", "4284": "\u7b2c\u4e8c\u8f91", "4285": "\u8282\u7701", "4286": "\u4e0d\u5b58\u5728", "4287": "\u62a5\u8b66", "4288": "\u600e\u4e48\u56de\u4e8b", "4289": "\u6de1\u5b63", "4290": "\u5934\u8111", "4291": "\u4f60\u81ea\u5df1", "4292": "\u6c49\u5ead", "4293": "\u6bcf\u4f4d", "4294": "\u6765\u5f97\u53ca", "4295": "\u4fdd\u5065", "4296": "1\u5c0f\u65f6", "4297": "\u8fd8\u4f4f", "4298": "\u4fbf\u4e8e", "4299": "\u90e8\u4f4d", "4300": "\u771f\u60c5", "4301": "\u773c\u754c", "4302": "\u4e25\u8083", "4303": "\u6a21\u5757", "4304": "\u65fa\u5b63", "4305": "\u5f04\u597d", "4306": "\u80cc\u7740", "4307": "\u522b\u5885", "4308": "\u5269", "4309": "\u9752\u5e74", "4310": "\u8bba\u8ff0", "4311": "\u63a5\u4e0b\u6765", "4312": "\u4e0d\u6015", "4313": "\u4f53\u8d34", "4314": "\u6545\u969c", "4315": "667", "4316": "\u914d\u8d27", "4317": "\u4e0d\u53ef\u591a\u5f97", "4318": "\u5206\u91cf", "4319": "\u770b\u591a", "4320": "\u5356\u70b9", "4321": "\u9047\u89c1", "4322": "\u4eba\u6c11\u5e01", "4323": "6\u4e2a\u5c0f\u65f6", "4324": "\u7f16", "4325": "\u589e\u957f", "4326": "\u5efa", "4327": "\u7ed5", "4328": "\u5413\u4eba", "4329": "\u5fc3\u52a8", "4330": "\u91d1\u878d", "4331": "\u5e73", "4332": "\u4eb2\u4eba", "4333": "\u7f57\u7c73", "4334": "\u624b\u7eed\u8d39", "4335": "\u5927\u90fd", "4336": "\u7545\u9500", "4337": "\u666f\u533a", "4338": "\u76ee\u6807", "4339": "\u4e00\u4e2a\u591a\u5c0f\u65f6", "4340": "\u7231\u597d", "4341": "\u65c5", "4342": "\u6559\u79d1\u4e66", "4343": "\u65e5\u5f0f", "4344": "\u8c03\u5230", "4345": "2\u672c", "4346": "\u884c\u52a8", "4347": "\u8fd8\u6709\u4ec0\u4e48", "4348": "\u7ba1\u7406\u4eba\u5458", "4349": "\u5c06\u4f1a", "4350": "\u53ef\u53d6", "4351": "\u5212", "4352": "\u9152\u5eca", "4353": "17", "4354": "1\u53f7", "4355": "\u5c5e", "4356": "\u52b2", "4357": "\u5e38\u89c1", "4358": "0\u5206", "4359": "\u4e3e\u52a8", "4360": "\u6bd4\u5982\u8bf4", "4361": "\u53cb\u8c0a", "4362": "\u4fa7", "4363": "\u7d22\u6027", "4364": "\u6b64\u7c7b", "4365": "\u5b59\u5bc5\u8d35", "4366": "\u56fd\u5b66", "4367": "\u900f\u660e", "4368": "\u900f\u8fc7", "4369": "\u727a\u7272", "4370": "\u70e6\u607c", "4371": "\u7c97\u7565", "4372": "\u4fdd\u5b9a", "4373": "\u6642\u5019", "4374": "\u6da8", "4375": "\u6240\u5728", "4376": "\u7ed3", "4377": "\u4e0d\u66fe", "4378": "\u652f\u7968", "4379": "\u4e0d\u613f", "4380": "\u8282\u7ea6", "4381": "\u83dc\u5f0f", "4382": "\u5feb\u901f", "4383": "\u4e24\u4f4d", "4384": "\u6905\u5b50", "4385": "\u4e0a\u8f66", "4386": "\u5206\u6210", "4387": "\u6837\u5f0f", "4388": "\u661f\u7ea7\u9152\u5e97", "4389": "\u5bb3\u4eba", "4390": "CTRIP", "4391": "\u90ae\u5bc4", "4392": "\u52a0\u4ee5", "4393": "\u8bc1\u4ef6", "4394": "\u8bb2\u5230", "4395": "\u5fae\u661f", "4396": "\u9ed1\u767d", "4397": "\u626c\u58f0\u5668", "4398": "\u4f84\u5973", "4399": "\u8868\u8ff0", "4400": "\u5730\u6b65", "4401": "\u9999", "4402": "\u6162\u6162\u5730", "4403": "\u624b\u4e2d", "4404": "\u96be\u61c2", "4405": "\u6d1b\u9633", "4406": "\u7e41\u7410", "4407": "\u4e94\u4e00", "4408": "\u6655\u5012", "4409": "\u88ab\u8925", "4410": "\u5c82", "4411": "\u62a5\u9500", "4412": "\u6c64\u59c6", "4413": "\u524d\u51e0\u5929", "4414": "\u6495", "4415": "\u4e0d\u89c1\u4e86", "4416": "\u6570\u7801", "4417": "\u559c", "4418": "\u611f\u6fc0", "4419": "\u7a97\u53e3", "4420": "\u516d\u70b9", "4421": "\u5927\u4e00\u70b9", "4422": "\u714e", "4423": "\u7238\u7238\u5988\u5988", "4424": "23", "4425": "\u4e00\u5e74\u7ea7", "4426": "\u56f4\u7ed5", "4427": "\u7fd8", "4428": "\u61d2", "4429": "\u5f53\u4f5c", "4430": "\u718f", "4431": "\u70ed\u5fc3", "4432": "\u5bc2\u5bde", "4433": "\u6655\u6b7b", "4434": "\u9ad8\u7aef", "4435": "\u513f\u65f6", "4436": "\u8fd9\u51e0\u5929", "4437": "\u6f6e", "4438": "\u770b\u4e0d\u89c1", "4439": "\u5185\u5730", "4440": "\u7ea2", "4441": "\u9519\u522b\u5b57", "4442": "\u4fdd", "4443": "\u8fc7\u591a", "4444": "\u5730\u5e26", "4445": "\u76ae", "4446": "\u65f6\u5e38", "4447": "\u582a\u79f0", "4448": "\u592b\u59bb", "4449": "\u76f8\u7231", "4450": "\u532a", "4451": "\u5fc3\u601d", "4452": "\u8033\u673a", "4453": "20", "4454": "\u8457\u540d", "4455": "\u5fb7\u56fd", "4456": "\u8f6c\u6362", "4457": "\u5916\u90e8", "4458": "\u770b\u8fc7", "4459": "\u63d0\u4ea4", "4460": "\u661f\u661f", "4461": "\u591c\u5e02", "4462": "2008\u5e748\u67088\u65e5", "4463": "\u6211\u7684\u5b69\u5b50", "4464": "\u8be5\u5e97", "4465": "\u54b3\u55fd", "4466": "\u6811\u7acb", "4467": "\u5f00\u4f1a", "4468": "\u5927\u4e8e", "4469": "\u5355\u8584", "4470": "\u751f\u7269", "4471": "\u820d\u5f97", "4472": "\u884c\u674e\u5458", "4473": "\u9690\u85cf", "4474": "\u4e24\u5206\u949f", "4475": "\u4e00\u5bf9", "4476": "\u4e00\u6b65\u6b65", "4477": "\u5316", "4478": "\u5927\u9053\u7406", "4479": "\u4f5c\u98ce", "4480": "\u4e66\u9875", "4481": "\u7d27\u51d1", "4482": "\u96be\u5fd8", "4483": "\u70e7\u6c34", "4484": "\u7231\u5fc3", "4485": "\u5f88\u8d5e", "4486": "\u611f\u89ba", "4487": "\u9084\u662f", "4488": "\u89ba\u5f97", "4489": "\u9084\u6709", "4490": "\u75bc", "4491": "\u5c11\u89c1", "4492": "led", "4493": "\u6bcf\u5e74", "4494": "\u684c", "4495": "\u5904\u4e8b", "4496": "\u6d17\u6d74", "4497": "\u4e34", "4498": "\u8db3\u591f\u4e86", "4499": "\u5f39\u7c27", "4500": "\u62ac\u5934", "4501": "\u7ec4\u7ec7", "4502": "\u7b2c2\u5929", "4503": "\u8865\u507f", "4504": "\u5220", "4505": "\u62d6", "4506": "\u6307\u5357", "4507": "\u6c7d\u8f66\u7ad9", "4508": "PS", "4509": "TAXI", "4510": "\u5e10", "4511": "\u6ed1", "4512": "\u53cd\u7701", "4513": "\u4e2d\u592e", "4514": "\u5317\u65b9", "4515": "\u4e0d\u9002", "4516": "\u8865\u4e01", "4517": "\u6253\u51fa", "4518": "\u51e0\u5341\u9875", "4519": "\u524d\u8005", "4520": "\u9634\u6697", "4521": "\u7269\u7f8e\u4ef7\u5ec9", "4522": "\u4e0d\u7545", "4523": "\u5c0f\u533a", "4524": "\u4ed8\u8d39", "4525": "\u90a3\u65f6\u5019", "4526": "\u54ea\u6709", "4527": "\u8001\u5988", "4528": "\u6f2b\u957f", "4529": "\u5c42", "4530": "\u6211\u5f88\u559c\u6b22", "4531": "dell", "4532": "\u4e0d\u5e78", "4533": "\u4e0d\u4e00\u6837\u7684\u5361\u6885\u62c9", "4534": "\u6df1\u6df1\u5730", "4535": "\u672c\u6b21", "4536": "\u4e0d\u660e", "4537": "\u4f4e\u7ea7", "4538": "\u5f53\u65e5", "4539": "\u5e08\u5085", "4540": "\u6606\u660e", "4541": "\u504f\u91cd", "4542": "\u8d28\u95ee", "4543": "\u4e24\u904d", "4544": "\u70df", "4545": "\u4e00\u4e2a\u6545\u4e8b", "4546": "\u7687\u5e1d", "4547": "360", "4548": "\u8d8a\u6765", "4549": "\u8d8a\u591a", "4550": "\u65e9\u671f", "4551": "\u4e00\u95ee", "4552": "\u8bf7\u52ff", "4553": "\u64c5\u81ea", "4554": "\u7ae3\u5de5", "4555": "\u5916\u578b", "4556": "\u6d17\u8863", "4557": "\u5355\u5b50", "4558": "\u6ee1\u6000", "4559": "\u6536\u94b1", "4560": "\u5546\u5e97", "4561": "\u53f0\u6e7e", "4562": "\u4eba\u6c11", "4563": "\u8bda\u631a", "4564": "\u6539\u5efa", "4565": "5\u4e2a", "4566": "\u5927\u6d0b", "4567": "\u6536\u76ca", "4568": "\u900f\u5f7b", "4569": "\u7b80", "4570": "\u5145\u7535\u5668", "4571": "\u5907\u7528", "4572": "80\u5143", "4573": "\u8457", "4574": "\u5f04\u810f", "4575": "\u8981\u94b1", "4576": "\u5e10\u5355", "4577": "5\u5757", "4578": "\u6807\u699c", "4579": "\u4f4e\u7aef", "4580": "\u83ab\u6cf0", "4581": "Dell", "4582": "9\u70b9", "4583": "\u7528\u8bed", "4584": "\u82b1\u8d39", "4585": "\u67e5\u627e", "4586": "\u6298\u78e8", "4587": "\u8d27\u5230\u4ed8\u6b3e", "4588": "\u6d74\u888d", "4589": "\u8d60", "4590": "\u4e09\u5206\u4e4b\u4e00", "4591": "\u80a1\u7968", "4592": "\u5371\u673a", "4593": "\u521d\u6b21", "4594": "\u6821\u957f", "4595": "\u54c4", "4596": "\u6d53\u70c8", "4597": "\u6012", "4598": "\u88c5\u5e27", "4599": "\u81ea\u884c\u8f66", "4600": "\u6dd8\u6c70", "4601": "\u54ea\u4f4d", "4602": "\u592a\u51b7", "4603": "\u5207\u6362", "4604": "\u76f8\u5f53\u4e8e", "4605": "\u5306\u5fd9", "4606": "\u9177", "4607": "\u5b9e\u4f8b", "4608": "\u8f6c\u8eab", "4609": "\u7b80\u6613", "4610": "\u8d85\u5f3a", "4611": "\u7ba1\u9053", "4612": "\u964d\u4f4e", "4613": "\u641c\u7d22", "4614": "\u7981", "4615": "\u5199\u5230", "4616": "\u5047\u5982", "4617": "\u4f20", "4618": "\u4e00\u822c\u4eba", "4619": "\u5df4\u5b66\u56ed", "4620": "\u7ffb\u4e86", "4621": "\u624b\u52a8", "4622": "\u5927\u5988", "4623": "\u5fc3\u667a", "4624": "\u65c5\u884c\u793e", "4625": "\u552f\u7f8e", "4626": "\u540d\u79f0", "4627": "\u63aa\u65bd", "4628": "\u505c\u7535", "4629": "\u5f00\u9614", "4630": "\u5c0f\u70b9\u5fc3", "4631": "\u6ca1\u6709\u95ee\u9898", "4632": "\u65b9\u5dfe", "4633": "\u6628\u665a", "4634": "\u51b7\u6c34", "4635": "\u822a\u73ed", "4636": "\u81ea\u884c", "4637": "\u4e09\u4e9a", "4638": "\u5b9e\u5730", "4639": "\u6218\u7565", "4640": "\u9707\u60ca", "4641": "\u7740\u60f3", "4642": "\u7565\u5fae", "4643": "\u5c31\u53eb", "4644": "\u95ee\u4e00\u4e0b", "4645": "\u7adf\u662f", "4646": "\u4e0b\u86cb", "4647": "\u6cb3\u5357", "4648": "\u65e5", "4649": "\u6bd4\u8f03", "4650": "\u9709", "4651": "\u623f\u5ba2", "4652": "\u6781\u7aef", "4653": "\u60e8", "4654": "\u53f3\u624b", "4655": "\u6478\u7d22", "4656": "\u54f2\u7406", "4657": "\u91cd\u5927", "4658": "\u6dcb\u6d74\u95f4", "4659": "\u4e00\u884c", "4660": "DIY", "4661": "\u8bc4\u8bed", "4662": "\u7537\u5b50", "4663": "\u706b\u9505", "4664": "\u559c\u60a6", "4665": "\u8be0\u91ca", "4666": "\u7cbe\u7075", "4667": "\u963f\u59e8", "4668": "\u521d\u6b65", "4669": "\u523a\u6fc0", "4670": "\u6269\u5c55", "4671": "\u7537\u5b69", "4672": "\u4e5f\u5c31\u662f\u8bf4", "4673": "\u540e\u8fb9", "4674": "\u592a\u77ed", "4675": "\u901a\u7535", "4676": "\u6c49\u5978", "4677": "\u54b1", "4678": "\u7535\u5b50", "4679": "13\u5bf8", "4680": "\u5168\u7403", "4681": "\u8d44\u6e90", "4682": "\u70ab", "4683": "Thinkpad", "4684": "\u9ec4\u5c71", "4685": "\u8eab", "4686": "not", "4687": "\u70b9\u70b9\u6ef4\u6ef4", "4688": "\u5ef6", "4689": "\u6297\u8bae", "4690": "\u6838\u5bf9", "4691": "\u6c34\u6d52", "4692": "\u897f\u65b9\u4eba", "4693": "\u4e00\u5e94\u4ff1\u5168", "4694": "\u4e24\u53ea", "4695": "\u8bd5\u7528\u7248", "4696": "\u4e8b\u540e", "4697": "\u8bd5\u60f3", "4698": "\u51b7\u98ce", "4699": "\u52a0\u4e00", "4700": "\u521d\u5b66\u8005", "4701": "\u7f16\u5199", "4702": "\u717d\u60c5", "4703": "\u6e56", "4704": "\u7b2c\u4e8c\u5929\u4e2d\u5348", "4705": "\u9876\u591a", "4706": "\u53f9\u606f", "4707": "\u96be\u8fc7", "4708": "\u5730\u9762", "4709": "\u7238\u5988", "4710": "\u53d7\u9a97", "4711": "10\u5bf8", "4712": "3\u661f\u7ea7", "4713": "\u591a\u4e45", "4714": "\u51fa\u4e4e\u610f\u6599", "4715": "\u786c\u662f", "4716": "\u65e0\u9650", "4717": "\u6ca1\u5173\u7cfb", "4718": "\u4eba\u4eba", "4719": "\u8840\u8ff9", "4720": "\u6027\u5b50", "4721": "\u65e0\u975e", "4722": "\u7cbe\u534e", "4723": "\u64a4", "4724": "\u5c71\u897f", "4725": "\u517c\u987e", "4726": "\u539f\u4ef7", "4727": "\u5f00\u901a", "4728": "html", "4729": "\u51b7\u6f20", "4730": "\u8fd9\u4e8b", "4731": "\u516c\u8f66", "4732": "\u5750\u5730\u94c1", "4733": "\u65e0\u610f\u4e2d", "4734": "\u65e0\u53ef", "4735": "T4200", "4736": "\u5c0d", "4737": "\u66f4\u5bb9\u6613", "4738": "\u62d6\u7740", "4739": "\u6709\u6240\u503c", "4740": "\u9057\u5fd8", "4741": "\u6709\u8bb8\u591a", "4742": "\u70ed\u6c34\u5668", "4743": "\u6e29\u548c", "4744": "\u4f55", "4745": "\u4e0a\u4e0b\u73ed", "4746": "\u83ab\u540d", "4747": "\u4eab\u7528", "4748": "\u683c", "4749": "\u53d8\u5f62", "4750": "\u7ed8\u753b", "4751": "\u7167\u987e", "4752": "\u5fe0\u544a", "4753": "\u9891\u7387", "4754": "\u53cb\u60c5", "4755": "\u5730\u7403", "4756": "\u7ef4\u6301", "4757": "\u53e3\u543b", "4758": "\u8f83\u5c11", "4759": "\u987f\u65f6", "4760": "1\u5206", "4761": "\u5ef6\u7eed", "4762": "\u538c\u70e6", "4763": "\u5b9e\u8d28", "4764": "\u5931\u8bef", "4765": "\u590d\u4e60", "4766": "\u51c6\u65f6", "4767": "\u4e4f", "4768": "\u4f55\u5fc5", "4769": "10\u70b9", "4770": "\u6b63\u5f0f", "4771": "\u9ed8\u9ed8", "4772": "\u6e10\u6e10", "4773": "\u4e00\u7fa4", "4774": "\u6709\u70b9\u6c89", "4775": "\u5916\u8d44", "4776": "\u5730\u4f4d", "4777": "\u6d77\u6d0b\u516c\u56ed", "4778": "\u91d1\u949f", "4779": "\u5341\u5143", "4780": "\u5bbe\u81f3\u5982\u5f52", "4781": "\u9644", "4782": "\u6bcf\u95f4", "4783": "\u59dc\u6c64", "4784": "\u9010\u6e10", "4785": "\u7269\u6709\u6240\u503c", "4786": "\u5353\u8d8a", "4787": "\u82b1\u54e8", "4788": "\u4f17", "4789": "\u4fe9", "4790": "\u8bf8\u4f4d", "4791": "\u6761\u5b50", "4792": "\u4f24", "4793": "\u56db\u5927", "4794": "\u9891\u7e41", "4795": "\u6696", "4796": "\u8272\u8c03", "4797": "\u9a97\u5b50", "4798": "\u79bb\u5947", "4799": "\u4e24\u8fb9", "4800": "\u9047", "4801": "\u51e0\u7bc7", "4802": "\u8c05\u89e3", "4803": "\u8a00\u60c5", "4804": "\u4f4e\u6863", "4805": "\u79bb\u8c31", "4806": "\u7cdf", "4807": "\u88ab\u5355", "4808": "\u540e\u8005", "4809": "\u6708\u4eae", "4810": "\u8d39\u529b", "4811": "\u5f3a\u529b", "4812": "\u5747\u5300", "4813": "\u5b9e\u65bd", "4814": "\u70e6\u8e81", "4815": "\u65fa", "4816": "\u70e4\u6f06\u9762", "4817": "\u6b67\u89c6", "4818": "\u5176\u95f4", "4819": "\u554f\u984c", "4820": "\u6807\u6ce8", "4821": "\u9971", "4822": "\u4e24\u70b9", "4823": "15\uff05", "4824": "\u4f4e\u4e8e", "4825": "\u52a0\u6df1", "4826": "\u609f", "4827": "\u5bf9\u8c61", "4828": "\u51fa\u79df\u8f66\u53f8\u673a", "4829": "\u4eba\u7fa4", "4830": "\u3009", "4831": "\u60b2\u5267", "4832": "\u504f\u504f", "4833": "\u9759\u9759\u5730", "4834": "\u51e0\u7ae0", "4835": "\u597d\u542c", "4836": "\u6709\u4e8b", "4837": "\u501f\u53e3", "4838": "\u9a71", "4839": "\u89e6\u52a8", "4840": "\u53ea\u5f97", "4841": "\u4e00\u6839", "4842": "\u9c9c\u82b1", "4843": "\u5ba4\u5916", "4844": "\u4e00\u526f", "4845": "\u50ac\u4fc3", "4846": "\u9b3c", "4847": "\u5916\u7525", "4848": "4\u5929", "4849": "\u65e0\u9521", "4850": "\u9664", "4851": "\u53a8\u5e08", "4852": "EMS", "4853": "\u4e2a\u6848", "4854": "\u8fce\u5bbe", "4855": "\u9002\u914d\u5668", "4856": "\u5bb6\u5ead\u6559\u80b2", "4857": "\u6c34\u91cf", "4858": "\u6d32\u9645\u9152\u5e97", "4859": "\u518d\u4e09", "4860": "\u6293\u4f4f", "4861": "\u767d\u767d", "4862": "\u5173\u6000", "4863": "\u8fd9\u6837\u5b50", "4864": "\u4ee4\u4eba\u5931\u671b", "4865": "\u8fd9\u6837\u505a", "4866": "08\u5e74", "4867": "\u751a", "4868": "\u9000\u6b3e", "4869": "\u53ef\u89c6", "4870": "\u9884\u60f3", "4871": "\u6454", "4872": "\u4eba\u4f53", "4873": "\u63a2\u7d22", "4874": "\u5145\u65a5", "4875": "\u5b89", "4876": "\u6591\u6591", "4877": "\u4e3b\u89c2", "4878": "\u731c", "4879": "\u6267\u884c", "4880": "\u91d1\u9e70", "4881": "\u53ef\u4e50", "4882": "\u789f", "4883": "\u5361\u7247", "4884": "\u6587\u98ce", "4885": "\u9886\u609f", "4886": "\u4f18\u5316", "4887": "\u91c7\u53d6", "4888": "\u4ece\u800c", "4889": "\u4e00\u4e0d\u5c0f\u5fc3", "4890": "\u5df4\u83f2\u7279", "4891": "\u91cc\u8fb9", "4892": "\u5c0f\u8c46\u8c46", "4893": "\u54df", "4894": "B\u578b", "4895": "\u6069\u6028", "4896": "\u8bed\u53e5", "4897": "\u4fdd\u517b", "4898": "\u7a0d\u7a0d", "4899": "\u5305\u8f66", "4900": "\u549a", "4901": "\u4f53\u7cfb", "4902": "\u8bb8", "4903": "\u9000\u56de", "4904": "\u66f4\u5927", "4905": "\u91ca\u653e", "4906": "\u5f88\u503c", "4907": "4799", "4908": "\u672a\u77e5", "4909": "\u6700\u540e\u4e00\u6b21", "4910": "\u6982\u62ec", "4911": "\u4efd\u91cf", "4912": "\u6539\u89c2", "4913": "\u5207", "4914": "\u4e66\u5427", "4915": "\u7559\u5728", "4916": "\u58f0\u660e", "4917": "\u591c\u91cc", "4918": "NND", "4919": "\u901a\u7bc7", "4920": "\u6536\u53d6", "4921": "\u6740", "4922": "\u8001\u5f0f", "4923": "\u6253\u51fb", "4924": "\u54e5\u54e5", "4925": "15\u5bf8", "4926": "\u5206\u6570", "4927": "\u6b8b\u9177", "4928": "\u968f\u540e", "4929": "\u5377", "4930": "\u56fe\u5f62", "4931": "\u7075\u6d3b", "4932": "\u798f\u5dde", "4933": "\u5413\u6b7b", "4934": "\u5de6\u624b", "4935": "\u829c\u6e56", "4936": "\u767d\u9886", "4937": "3D", "4938": "\u5217\u4e3e", "4939": "\u7a7f\u7740", "4940": "\u4ee3\u66ff", "4941": "\u8f7b\u8f7b", "4942": "\u6ecb\u5473", "4943": "\u542c\u8bf4\u8fc7", "4944": "\u6211\u7684\u670b\u53cb", "4945": "\u6587\u6863", "4946": "\u5fc3\u75db", "4947": "\u6e56\u666f", "4948": "80\u5e74\u4ee3", "4949": "\u5b9e\u7269", "4950": "\u65e0\u4ece", "4951": "\u56db\u5ddd", "4952": "\u76f8\u7b26", "4953": "\uff12", "4954": "\u558a", "4955": "\u65b9\u6848", "4956": "\u51fa\u9519", "4957": "\u60ca\u5947", "4958": "\u4f20\u8fbe", "4959": "SONY", "4960": "\u51fa\u8eab", "4961": "\u5289\u57fa", "4962": "\u53e4\u6587", "4963": "\u58f3", "4964": "\u6700\u4f73", "4965": "\u810f\u4e71\u5dee", "4966": "\u4e00\u5206\u949f", "4967": "\u8ba8", "4968": "\u8fa9\u89e3", "4969": "\u897f\u9910", "4970": "\u79f0\u4e3a", "4971": "\u53e4", "4972": "\u9897", "4973": "11\u70b9", "4974": "\u9009\u7528", "4975": "\u65fa\u89d2", "4976": "\u810f\u516e\u516e", "4977": "\u610f\u8bc6\u5230", "4978": "\u5f97\u4ee5", "4979": "\u820d\u4e0d\u5f97", "4980": "\u4e0d\u6613", "4981": "\u8eab\u5904", "4982": "\u6f5c\u89c4\u5219", "4983": "\u683c\u5c40", "4984": "\u96be\u514d", "4985": "\u8bf4\u5f97", "4986": "\u5927\u5305", "4987": "\u8d8b\u52bf", "4988": "\u539f\u672c\u4ee5\u4e3a", "4989": "\u7761\u8863", "4990": "\u6491", "4991": "\u8c46\u6d46", "4992": "\u5f00\u53e3", "4993": "\u6d17\u6fa1\u65f6", "4994": "\u51b7\u6c14", "4995": "\u89e6\u611f", "4996": "\u8fd0\u8d39", "4997": "\u523b\u610f", "4998": "\u6559\u6761", "4999": "\u76d8\u5b50", "5000": "\u89e3\u6790", "5001": "\u4e9b\u8bb8", "5002": "\u5341\u5e74", "5003": "\u8d77\u6b65\u4ef7", "5004": "\u8d28\u7591", "5005": "\u7b7e\u6536", "5006": "\u4ec5\u6709", "5007": "\u5c31\u4e0d", "5008": "\u4f1a\u597d", "5009": "\u9707\u52a8", "5010": "\u5be6\u5728", "5011": "\u6d17\u624b\u9593", "5012": "\u54cd\u5e94", "5013": "\u6b65\u9aa4", "5014": "\u5f02\u5e38", "5015": "\u4e88\u4ee5", "5016": "\u5c71\u4e0a", "5017": "\u79ef\u7d2f", "5018": "\u5b57\u6570", "5019": "3\u672c", "5020": "\u516d\u5c81", "5021": "\u540e\u95e8", "5022": "\u5e95\u4e0b", "5023": "\u514d\u5f97", "5024": "\u63d0\u8d77", "5025": "\u6709\u7a7a", "5026": "\u591a\u4f59", "5027": "\u9009\u9879", "5028": "\u8d70\u51fa", "5029": "usb\u63a5\u53e3", "5030": "\u517b\u6210", "5031": "280\u5143", "5032": "\u8d35\u9633", "5033": "\u540c\u5728", "5034": "\u90a3\u4e48\u4e45", "5035": "\u9000\u6362", "5036": "\u987a", "5037": "\u6c89\u7a33", "5038": "492\u5143", "5039": "\u8bad\u7ec3", "5040": "\u5728\u8def\u4e0a", "5041": "\u8d5e\u540c", "5042": "\u5e74", "5043": "\u7701\u94b1", "5044": "\u81ea\u79f0", "5045": "6\u672c", "5046": "\u88ab\u9a97", "5047": "\u5361\u901a", "5048": "\u6cd5\u8bed", "5049": "\u51fa\u4f17", "5050": "\u6b22\u4e50", "5051": "\u96be\u80fd\u53ef\u8d35", "5052": "\u8bb2\u5ea7", "5053": "\u4e00\u5934", "5054": "\u6807\u660e", "5055": "\u763e", "5056": "\u8bfb\u672c", "5057": "\u62fc\u5199", "5058": "\u719f\u7ec3", "5059": "\u5934\u5929", "5060": "\u627e\u51fa", "5061": "\u8270\u96be", "5062": "\u56de\u5e94", "5063": "\u662f\u975e", "5064": "Windows", "5065": "\u63cf\u7ed8", "5066": "\u90a3\u4e2a\u4eba", "5067": "06", "5068": "\u4e25", "5069": "\u613f", "5070": "\u866b\u5b50", "5071": "\u8db4", "5072": "\u589e\u5f3a", "5073": "\u5899\u9762", "5074": "\u4e0d\u96be", "5075": "\u5929\u5802", "5076": "\u7cfb", "5077": "\u7801\u5934", "5078": "\u957f\u9014\u6c7d\u8f66\u7ad9", "5079": "\u9ea6\u5f53\u52b3", "5080": "\u81ea\u6765\u6c34", "5081": "\u8bfb\u61c2", "5082": "\u4e50", "5083": "\u638c\u6258", "5084": "\u78e8\u5177", "5085": "\u66f4\u597d\u5730", "5086": "\u4f86", "5087": "\u5df2\u7d93", "5088": "\u9019\u6a23", "5089": "\u5dee\u4ef7", "5090": "\u5149\u789f", "5091": "\u5f55\u97f3", "5092": "\u51fa\u5e93", "5093": "\u5c0f\u4e8e", "5094": "\u63d2\u5934", "5095": "\u6b63\u76f4", "5096": "\u9887\u4e3a", "5097": "\u5149\u660e", "5098": "\u4e5d\u70b9", "5099": "\u65e0\u7591", "5100": "\u4e00\u7ae0", "5101": "\u5c0f\u5154\u5b50", "5102": "GL40", "5103": "\u54c8\u5c14\u6ee8", "5104": "\u6700\u6df1", "5105": "\u51fa\u751f", "5106": "\u5927\u5546\u573a", "5107": "8\u5143", "5108": "\u8fd4\u56de", "5109": "\u597d\u51e0\u5929", "5110": "\u5bb6\u4e2d", "5111": "\u529e\u5b8c", "5112": "\u6155\u540d", "5113": "\u659c\u5bf9\u9762", "5114": "\u4e0d\u6653\u5f97", "5115": "\u4f20\u627f", "5116": "\u4e00\u4e1d", "5117": "\u6240\u60f3", "5118": "\u4e1c\u65b9", "5119": "\u5165\u4f4f\u7387", "5120": "\u591a\u82b1", "5121": "\u6fc0\u70c8", "5122": "\u78e8\u96be", "5123": "\u4e0b\u53483\u70b9", "5124": "\u6c14\u4eba", "5125": "\u9014\u5f84", "5126": "\u5c45\u6c11\u533a", "5127": "ibm", "5128": "\u6e2f\u5e01", "5129": "\u90a3\u4e00\u523b", "5130": "\u60f3\u77e5\u9053", "5131": "\u7edd", "5132": "\u7a97\u5b50", "5133": "\u4f1a\u5c55", "5134": "\u4fdd\u62a4\u819c", "5135": "\u4e70\u4e66", "5136": "\u5e73\u7b49", "5137": "\u5ba2\u8fd0", "5138": "\u76ef\u7740", "5139": "\u6251\u9f3b", "5140": "\u6b63\u5bf9", "5141": "\u5927\u95e8\u53e3", "5142": "\u56db\u5929", "5143": "\u4ee5\u4fbf", "5144": "\u611f\u6027", "5145": "\u60c5\u5546", "5146": "\u9753", "5147": "\u8bbe\u5b9a", "5148": "\u522e", "5149": "OEM", "5150": "\u63a8\u4ecb", "5151": "\u4eba\u548c", "5152": "\u4e24\u53e5", "5153": "\u5c31\u662f\u6211", "5154": "\u978b", "5155": "\u4ece\u4e0d", "5156": "\u7687\u51a0", "5157": "\u4e0d\u53ca", "5158": "\u4e09\u4e2a\u5b57", "5159": "\u897f\u8857", "5160": "\u77ed\u4fe1", "5161": "\u5851\u6599\u888b", "5162": "\u9ad8\u4e8e", "5163": "\u8fd9\u4e2a\u4eba", "5164": "\u53ef\u8a00", "5165": "\u52a0\u5165", "5166": "\u4e00\u5957\u4e66", "5167": "\u8003\u9a8c", "5168": "\u521d\u4e2d\u751f", "5169": "\u751c\u871c", "5170": "\u6328", "5171": "\u767e\u5bb6", "5172": "\u5b97\u65e8", "5173": "\u67dc\u5b50", "5174": "2\u70b9", "5175": "\u4eba\u6c14", "5176": "18", "5177": "\u9732\u51fa", "5178": "\u62ac", "5179": "\u4e24\u6761", "5180": "\u504f\u8fdc", "5181": "\u8138\u8272", "5182": "\u523a\u8033", "5183": "\u5dee\u4e00\u70b9", "5184": "\u5927\u8857", "5185": "\u81f4\u6b49", "5186": "100\u591a", "5187": "\u6db2\u6676\u5c4f", "5188": "\u79bb\u53bb", "5189": "\u6b22\u559c", "5190": "183", "5191": "\u53f3\u4fa7", "5192": "\u6709\u94b1", "5193": "\u54c7", "5194": "\u6240\u7528", "5195": "\u8001\u767e\u59d3", "5196": "CD", "5197": "\u6253\u5305", "5198": "\u54b1\u4eec", "5199": "\u505c\u7559", "5200": "\u8981\u77e5\u9053", "5201": "\u95e8\u9762", "5202": "\u80e1", "5203": "\u67d4\u548c", "5204": "\u5b9a\u4e49", "5205": "\u68c0\u9a8c", "5206": "\u80e1\u4e71", "5207": "\u5fc3\u5bd2", "5208": "\u8fd4\u4fee", "5209": "\u6d77\u6ee9", "5210": "\u51e0\u5957", "5211": "\u6d17\u53d1\u6c34", "5212": "\u5bf9\u5916", "5213": "\u6b8b\u5fcd", "5214": "\u8861\u91cf", "5215": "\u7535\u8bdd\u8d39", "5216": "\u5f53\u5373", "5217": "\u5de5\u7a0b\u5e08", "5218": "\u8db3\u7597", "5219": "\u505c\u6b62", "5220": "\u65e9\u665a", "5221": "\u6d17\u8138", "5222": "\u5355\u4e00", "5223": "\u9707", "5224": "\u7eaa\u5ff5", "5225": "\u53ef\u8bf4", "5226": "\u8b66\u5bdf", "5227": "\u8c08\u8c08", "5228": "\u82b1\u56ed\u5f0f", "5229": "\u9488\u5bf9\u6027", "5230": "\u9632\u6b62", "5231": "\u4ec1\u8005\u89c1\u4ec1", "5232": "\u5bbe", "5233": "\u8c03\u7406", "5234": "\u968f\u8eab", "5235": "\u62a5\u4fee", "5236": "\u7b97\u4ec0\u4e48", "5237": "\u73a9\u610f", "5238": "\u75be\u75c5", "5239": "\u6d74\u5e18", "5240": "\u8da3\u5473", "5241": "\u8d70\u6765", "5242": "\u90ae\u8d39", "5243": "\u70b9\u70b9", "5244": "\u4e45\u8fdc", "5245": "\u5c42\u9762", "5246": "\u5065\u8eab\u623f", "5247": "\u5206\u5f00", "5248": "\u515c", "5249": "\u77ed\u77ed", "5250": "\u5c11\u6709", "5251": "\u95e8\u9501", "5252": "\u7eaf\u6d01", "5253": "\u505a\u8d77", "5254": "\u62ff\u4e0b", "5255": "\u5982\u6709", "5256": "\u4e16\u4fd7", "5257": "\u6df1\u5904", "5258": "\u660e\u661f", "5259": "\u6db2\u4f53", "5260": "\u95f2", "5261": "\u585e", "5262": "\u53e3\u6c14", "5263": "\u53d1\u9519", "5264": "\u5df1", "5265": "\u5148\u524d", "5266": "\u8d39\u4e8b", "5267": "\u5b89\u9038", "5268": "\u4e00\u56de", "5269": "\u62a5\u4ef7", "5270": "\u96c6", "5271": "\u865a", "5272": "\u6559\u8bad", "5273": "\u4e24\u5c0f\u65f6", "5274": "LG", "5275": "\u6c49\u5b57", "5276": "\u63a2\u8ba8", "5277": "\u8fd9\u4e48\u591a\u5e74", "5278": "\u8fd9\u4e2a\u57ce\u5e02", "5279": "\u6a21\u6837", "5280": "\u4f7f\u4eba", "5281": "\u6b3e\u5f0f", "5282": "\u6d17\u8138\u76c6", "5283": "\u8ffd", "5284": "\u8ba4\u8bc6\u5230", "5285": "\u4ee3\u4ef7", "5286": "\u5929\u58e4\u4e4b\u522b", "5287": "\u6587\u9769", "5288": "\u62fc\u51d1", "5289": "\u7cbe\u5fc3", "5290": "\u656c\u4e1a", "5291": "\u901a\u5e38", "5292": "\u867d\u5c0f", "5293": "\u78b0\u4e0a", "5294": "\u684c\u4e0a", "5295": "\u8eab\u4e34\u5176\u5883", "5296": "\u667a\u8005", "5297": "1000", "5298": "\u9003\u907f", "5299": "\u74f6\u88c5", "5300": "\u65e5\u671f", "5301": "\u53c2\u6570", "5302": "\u6dd8\u6c14", "5303": "\u987a\u5e8f", "5304": "\u53ef\u7528", "5305": "X61", "5306": "\u9047\u4e0a", "5307": "\u51ed\u4ec0\u4e48", "5308": "\u56fd\u8425", "5309": "\u53d7\u6c14", "5310": "\u8bef", "5311": "\u4fbf\u6377", "5312": "\u770b\u5f97\u51fa", "5313": "\u7834\u70c2", "5314": "\u4e0d\u591f\u7528", "5315": "\u6c42\u533b\u4e0d\u5982\u6c42\u5df1", "5316": "\u738b\u5c0f\u6ce2", "5317": "\u7f8e\u5999", "5318": "\u7cbe\u88c5", "5319": "\u77ed\u6682", "5320": "\u6f14", "5321": "\u5efa\u7acb", "5322": "\u5177\u5907", "5323": "07\u5e74", "5324": "\u8425\u9500", "5325": "\u501f\u52a9", "5326": "\u4e24\u8005", "5327": "MSI", "5328": "\u966a\u7740", "5329": "\u6beb\u4e0d", "5330": "\u5438\u53d6", "5331": "4\u4e2a\u5c0f\u65f6", "5332": "\u51b0\u51c9", "5333": "\u4e2d\u82f1", "5334": "\u5a74\u513f", "5335": "\u5751\u4eba", "5336": "\u5806\u780c", "5337": "\u7528\u6599", "5338": "\u4e09\u70b9", "5339": "\u4e0d\u6b62", "5340": "\u6e38\u73a9", "5341": "\u4e00\u5e26", "5342": "\u4e71\u7cdf\u7cdf", "5343": "\u76d1\u63a7", "5344": "\u53d8\u6001", "5345": "\u7528\u529b", "5346": "\u53ea\u9700", "5347": "\u96f7\u540c", "5348": "\u6c14\u6e29", "5349": "\u63a8\u9500", "5350": "\u7ec4\u5408", "5351": "\u6e05\u6d17", "5352": "\u6d17\u624b", "5353": "\u5165\u53e3", "5354": "\u63a8\u5e7f", "5355": "\u771f\u7231", "5356": "\u6c88\u9633", "5357": "\u79c1\u4eba", "5358": "\u9ed1\u4e4e\u4e4e", "5359": "\u4e09\u4e2a\u4eba", "5360": "\u4e25\u5b9e", "5361": "\u5f15\u7528", "5362": "\u5934\u6655", "5363": "\u7edd\u5927\u591a\u6570", "5364": "c\u76d8", "5365": "\u7559\u610f", "5366": "\u5f88\u6709\u7528", "5367": "\u953b\u70bc", "5368": "\u4e2d\u534e", "5369": "\u7528\u5b8c", "5370": "\u9677\u5165", "5371": "\u567c", "5372": "25", "5373": "\u6743\u5229", "5374": "\u7ed3\u6676", "5375": "4699", "5376": "\u54c1\u5c1d", "5377": "\u5b8c\u4e86", "5378": "06\u5e74", "5379": "\u5e7f", "5380": "\u540d\u4e0d\u526f\u5b9e", "5381": "\u6811", "5382": "LCD", "5383": "\u6797\u8bed\u5802", "5384": "\u4e00\u676f", "5385": "\u63a5\u7ebf", "5386": "\u65ad\u4e86", "5387": "\u7814\u8bfb", "5388": "\u6cf0\u5c71", "5389": "\u5367\u5ba4", "5390": "\u6307\u51fa", "5391": "\u98ce\u6c34", "5392": "\u7a33\u5b9a\u6027", "5393": "\u6c89\u9ed8", "5394": "\u5c0f\u4e66", "5395": "\u7edf\u7edf", "5396": "\u8bf4\u4e0d\u4e0a", "5397": "\u7b2c\u4e00\u9875", "5398": "\u9644\u4ef6", "5399": "\u676f\u5b50", "5400": "\u7cbe\u529b", "5401": "\u76f8", "5402": "\u53c2\u52a0", "5403": "\u9ad8\u67b6", "5404": "\u53d6\u8d27", "5405": "\uff30", "5406": "\u53ec\u5f00", "5407": "\u4e24\u4e2a\u6708", "5408": "\u8350\u4e66", "5409": "\u5973\u5fc3\u7406\u5e08", "5410": "\u9152\u697c", "5411": "\u5e73\u90ae", "5412": "3\u6b21", "5413": "\u7a00", "5414": "\u7981\u7528", "5415": "\u8d25\u7b14", "5416": "\u4ee5\u6b64", "5417": "\u5f71\u7247", "5418": "\u60f3\u8fc7", "5419": "\u53ef\u9009", "5420": "\u8acb", "5421": "\u53f2\u6599", "5422": "\u8fdc\u79bb", "5423": "\u5355\u636e", "5424": "\u6e56\u5dde", "5425": "\u714e\u86cb", "5426": "\u7f3a\u5931", "5427": "\u5fc3\u60f3", "5428": "\u6162\u4e00\u70b9", "5429": "\u53cd\u5012", "5430": "\u7ed9\u51fa", "5431": "\u4e00\u9879", "5432": "\u7f8e\u5bb9", "5433": "\u4e94\u5c81", "5434": "\u51e0\u79cd", "5435": "\u6295\u8d44\u8005", "5436": "\u8150\u8d25", "5437": "\u4e94\u5206\u949f", "5438": "AHCI", "5439": "\u607c\u706b", "5440": "\u63d0\u5021", "5441": "\u5927\u81ea\u7136", "5442": "\u8bdd\u8bed", "5443": "\u4e0d\u80fd\u4e0d", "5444": "3G", "5445": "\u63a5\u542c", "5446": "\u536b\u6d74", "5447": "\u8d1d\u62c9", "5448": "\u5bb6\u56ed", "5449": "\u4e00\u500b", "5450": "\u964c\u751f", "5451": "20\u5c81", "5452": "\u6708", "5453": "\u670d\u52d9\u614b\u5ea6", "5454": "\u4e00\u8d77\u6765", "5455": "\u4e00\u8eab", "5456": "\u957f\u7bc7", "5457": "\u665a\u4e0a9\u70b9", "5458": "\u7cbe\u54c1", "5459": "\u771f\u7406", "5460": "\u8fdb\u623f", "5461": "\u51cf\u80a5", "5462": "\u897f\u5b89", "5463": "\u6c38\u8fdc\u662f", "5464": "\u5976\u7c89", "5465": "\u6253\u9020", "5466": "\u4eca", "5467": "\u4e24\u6837", "5468": "\u663e\u8457", "5469": "\u57fa\u91d1", "5470": "\u751f\u65e5\u793c\u7269", "5471": "\u9634\u5f71", "5472": "\u6807\u51c6\u623f", "5473": "\u7edd\u4e0d", "5474": "\u534e", "5475": "\u8fd9\u53e5\u8bdd", "5476": "\u5feb\u8981", "5477": "\u5237\u7259", "5478": "\u62a4\u80a4", "5479": "\u5546\u91cf", "5480": "\u770b\u5f97", "5481": "5.1", "5482": "\u63a5\u6536", "5483": "\u5177", "5484": "\u7535\u5b50\u7248", "5485": "\u517c\u5bb9\u6027", "5486": "\u843d\u5b9e", "5487": "\u7b2c\u4e00\u5957", "5488": "\u8854\u63a5", "5489": "\u76ae\u978b", "5490": "\u521d\u7ea7", "5491": "\u5f80\u4e0b", "5492": "\u624d\u534e", "5493": "\u5939\u6742", "5494": "\u98ce\u8da3", "5495": "\u5916\u8bed", "5496": "\u7ea0\u6b63", "5497": "260\u5143", "5498": "\u8f6c\u63a5", "5499": "\u6fc0\u52b1", "5500": "\u504f\u5dee", "5501": "\u62bd\u5c49", "5502": "\u4e0a\u624b", "5503": "\u6709\u8bef", "5504": "\u4e0a\u5f53\u53d7\u9a97", "5505": "\u516c\u4e3b", "5506": "\u7ec8\u7a76", "5507": "\u72ec\u81ea", "5508": "\u4e0d\u80fd\u8bf4", "5509": "\u4f7f\u5f97", "5510": "\u5fc3\u7406\u51c6\u5907", "5511": "\u505a\u6210", "5512": "\u518d\u89c1", "5513": "\u8f7b\u5fae", "5514": "\u591a\u4e00\u70b9", "5515": "\u4e43\u81f3", "5516": "\u8857\u8fb9", "5517": "\u6781\u5ea6", "5518": "\u79ef", "5519": "\u9876\u7740", "5520": "\u540c\u5fd7\u4eec", "5521": "\u52a0\u70b9", "5522": "\u4ec0\u4e48\u53eb", "5523": "\u6e05\u9759", "5524": "\u60f3\u529e\u6cd5", "5525": "\u6577\u884d", "5526": "n", "5527": "\u793c\u5377", "5528": "\u4fbf\u662f", "5529": "\u56fd\u4ea7", "5530": "\u4e0d\u89c1\u5f97", "5531": "\u6d88\u606f", "5532": "\u6f14\u8bb2", "5533": "\u53ea\u8981\u4f60", "5534": "\u5976", "5535": "\u4e0d\u8fdc\u5904", "5536": "\u4fbf\u5229\u5e97", "5537": "\u5982\u662f", "5538": "\u5e7f\u6cdb", "5539": "\u5199\u5b57", "5540": "\u53f0\u4e0a", "5541": "\u5199\u5b57\u53f0", "5542": "\u653e\u4e0d\u4e0b", "5543": "\u6c34\u538b", "5544": "\u83b7", "5545": "\u6dcb\u6f13\u5c3d\u81f4", "5546": "\u738b\u4f1f", "5547": "\u4eba\u9645", "5548": "\u73ab\u7470", "5549": "\u8ba1\u7b97", "5550": "4\u4e2a", "5551": "\u4e0d\u5e73", "5552": "\u4fdd\u5b58", "5553": "\u51e0\u5904", "5554": "\u7231\u5403", "5555": "\u8fd9\u4e00\u5207", "5556": "\u8a00\u60c5\u5c0f\u8bf4", "5557": "10\u5e74", "5558": "\u4ece\u6765\u6ca1\u6709", "5559": "\u6548\u5e94", "5560": "\u542f\u793a", "5561": "12\u5143", "5562": "\u95ea", "5563": "\u6109\u60a6", "5564": "\u9644\u697c", "5565": "30\u5206\u949f", "5566": "\u6709\u70b9\u513f", "5567": "25\u5143", "5568": "\u6d01\u51c0", "5569": "\u90fd\u5e02", "5570": "\u7279\u8d28", "5571": "\u77ed\u7bc7", "5572": "\u505a\u5927", "5573": "\u5265\u843d", "5574": "\u5e05", "5575": "\u6298\u75d5", "5576": "\u6df1\u5165\u6d45\u51fa", "5577": "\u5168\u4f53", "5578": "\u66b4\u9732", "5579": "\u884c\u653f\u623f", "5580": "\u6536\u5165", "5581": "\u6216\u8bb8\u662f", "5582": "\u6691\u5047", "5583": "\u8bfb\u7ed9", "5584": "\u5382\u5546", "5585": "2\u665a", "5586": "\u602a\u5f02", "5587": "\u60ef\u4f8b", "5588": "\u529f\u8017", "5589": "\u5341\u4e00", "5590": "\u526a", "5591": "\u8131", "5592": "\u6211\u5011", "5593": "\u603b\u7ebf", "5594": "\u53ea\u7528", "5595": "\u4e00\u9053", "5596": "\u5b9e\u8d28\u6027", "5597": "\u9884\u7559", "5598": "\u5438\u6536", "5599": "\u7b2c\u4e8c\u90e8", "5600": "\u53f0\u673a", "5601": "\u52a0\u5de5", "5602": "\u6563\u70ed\u6027", "5603": "\u55b7\u5934", "5604": "\u54cd\u58f0", "5605": "\u8fde\u7740", "5606": "\u4e00\u95e8", "5607": "\u8425\u517b", "5608": "\u521b\u65b0", "5609": "\u76fc", "5610": "\u6f0f\u5149", "5611": "5\u661f\u7ea7", "5612": "\u4e09\u5957", "5613": "\u4eca\u665a", "5614": "\u778e", "5615": "\u888b\u5b50", "5616": "\u8a00\u8bba", "5617": "WIFI", "5618": "\u77ee", "5619": "\u5b87\u5b99", "5620": "\u6254\u6389", "5621": "\u80dc", "5622": "\u4f9d\u65e7", "5623": "\u6708\u7ecf", "5624": "\u5f97\u4e0d\u5230", "5625": "\u8d35\u65cf", "5626": "\u8fd9\u4e0b", "5627": "\u767e\u59d3", "5628": "\u518d\u4f4f", "5629": "\u7537\u6027", "5630": "\u6709\u7ebf", "5631": "\u9759\u9759", "5632": "\u8dcc\u5b95", "5633": "\u66f4\u6539", "5634": "\u6563\u5ba2", "5635": "\u8138\u4e0a", "5636": "\u4e24\u4efd", "5637": "\u7247", "5638": "\u70ed\u9500", "5639": "\u52b1\u5fd7", "5640": "\u9017", "5641": "\u542f\u8fea", "5642": "\u60f3\u770b", "5643": "\u9b54\u517d", "5644": "\u5524\u9192", "5645": "\u751f\u4ea7", "5646": "\u85cf", "5647": "\u60a6\u534e", "5648": "\u5de7", "5649": "\u9080\u8bf7", "5650": "\u6b63\u95e8", "5651": "\u7d27\u9760", "5652": "\u8089", "5653": "\u5916\u5305\u88c5", "5654": "\u626e\u6f14", "5655": "\u5f31\u70b9", "5656": "\u53bb\u6389", "5657": "\u7ea0\u7ed3", "5658": "\u5f80\u4e8b", "5659": "\u5ba4", "5660": "\u5185\u5728", "5661": "\u66f2\u6298", "5662": "\u5c31\u8bfb", "5663": "\u65e0\u7528", "5664": "\u80fd\u5f97\u5230", "5665": "\u6ca1\u591a\u4e45", "5666": "\u591a\u5c0f\u65f6", "5667": "\u91c7\u5149", "5668": "basic", "5669": "\u518d\u4e00\u6b21", "5670": "\u89e6\u6478\u5f0f", "5671": "\u4e0d\u53d8", "5672": "HD", "5673": "\u4e3b\u7ebf", "5674": "N280", "5675": "\u666f", "5676": "\u4e3a\u5565", "5677": "\u6307\u793a", "5678": "\u8def\u7ebf", "5679": "\u5f17\u6d1b\u683c", "5680": "\u8111\u6d77", "5681": "\u5bb6\u4f19", "5682": "\u6ee1\u5730", "5683": "\u9762\u5411", "5684": "\u5145", "5685": "\u5927\u96e8", "5686": "\u884c\u6587", "5687": "\u6765\u6e90", "5688": "\u5305\u88f9", "5689": "\u773c\u91cc", "5690": "\u8d2a\u5a6a", "5691": "\u9752\u5c11\u5e74", "5692": "\u6076", "5693": "\u5904\u5728", "5694": "\u624b\u8fb9", "5695": "\u540d\u4e49", "5696": "\u745c\u4f3d", "5697": "\u5f80\u524d\u8d70", "5698": "\u7ffb\u65b0", "5699": "\u00b0", "5700": "\u5fcd\u65e0\u53ef\u5fcd", "5701": "X", "5702": "\u53e4\u4eba", "5703": "\u75d2", "5704": "\u6e05\u6670\u5ea6", "5705": "\u62e7", "5706": "\u5feb\u9910", "5707": "\u7535\u8f66", "5708": "\u5c0a\u4e25", "5709": "\u5934\u75db", "5710": "\u4f9d\u636e", "5711": "\u770b\u56fe", "5712": "\u5230\u65f6", "5713": "\u5f53\u6210", "5714": "\u5f98\u5f8a", "5715": "\u4e0b\u624b", "5716": "\u7528\u5177", "5717": "\u7ef4\u666f", "5718": "\u6807\u4ef7", "5719": "\u8fc7\u591c", "5720": "\u5206\u5e03", "5721": "\u521d\u8877", "5722": "\u4e1b\u4e66", "5723": "\u5f88\u5feb\u4e50", "5724": "\u9505\u7089", "5725": "\u6591\u9a73", "5726": "\u4e0a\u65b9", "5727": "\u53d7\u7528", "5728": "500\u5143", "5729": "\u6838\u5b9e", "5730": "\u5f25\u6f2b", "5731": "\u597d\u5947\u5fc3", "5732": "\u65b0\u95fb", "5733": "\u50cf\u7d20", "5734": "\u5c0f\u5f3a", "5735": "\u6d17\u8863\u5238", "5736": "\u4e00\u4e8b", "5737": "\u62c9\u4e1d", "5738": "\u9884\u5148", "5739": "\u4fe1\u7528", "5740": "\u8fd8\u9001", "5741": "\u8868\u73b0\u51fa", "5742": "\u60ca\u9192", "5743": "\u5355\u4eba\u5e8a", "5744": "\u563b\u563b", "5745": "\u8bc4\u7ea7", "5746": "\u6d77\u6c34", "5747": "\u8bd9\u8c10", "5748": "10\u4e2a", "5749": "\u4f20\u5947", "5750": "\u4e00\u4e2a\u534a\u5c0f\u65f6", "5751": "SP3", "5752": "\u67d4\u8f6f", "5753": "\u5c1d", "5754": "\u60f3\u4e0d\u901a", "5755": "\u5c0f\u5b9d", "5756": "\u4e3b\u6301\u4eba", "5757": "5\u4e2a\u5c0f\u65f6", "5758": "\u51e1\u662f", "5759": "\u897f\u6e56", "5760": "\u5c01\u6761", "5761": "\u4e0a\u73af", "5762": "\u521b\u610f", "5763": "\u770b\u61c2", "5764": "\u4e00\u4e2a\u5973\u4eba", "5765": "\u5934\u4e00\u6b21", "5766": "\u6613\u4e8e", "5767": "\u8d44\u672c", "5768": "\u7cbe\u8f9f", "5769": "\u8f83\u65e7", "5770": "\u4e00\u5ea7", "5771": "\u56de\u5230\u5bb6", "5772": "\u541b\u60a6", "5773": "\u8f83\u5feb", "5774": "\u516c\u5bd3\u623f", "5775": "\u94b1\u5305", "5776": "\u4e00\u5473", "5777": "\u6c89\u601d\u5f55", "5778": "\u5f53\u505a", "5779": "\u90a3\u4e9b\u4e8b", "5780": "\u5962\u534e", "5781": "\u6b63\u53f2", "5782": "\u9002\u5f53", "5783": "\u4e8c\u661f\u7ea7", "5784": "\u65b0\u5f00", "5785": "\u5706\u901a", "5786": "\u826f\u5fc3", "5787": "\u8c41\u7136\u5f00\u6717", "5788": "\u65b0\u5947", "5789": "\u6846\u67b6", "5790": "\u5b8c\u5907", "5791": "\u6b7b\u53bb", "5792": "\u6d45\u8584", "5793": "\u5c0f\u6797", "5794": "500\u591a", "5795": "\u6062\u590d\u76d8", "5796": "\u65e9\u5df2", "5797": "\u5feb\u9012\u5458", "5798": "\u7ba1\u5bb6\u90e8", "5799": "$", "5800": "LP", "5801": "\u6709\u5229\u4e8e", "5802": "\u4e24\u5bb6", "5803": "\u5145\u8db3", "5804": "110", "5805": "\u60f3\u5410", "5806": "\u6362\u53e5\u8bdd\u8bf4", "5807": "\u9886", "5808": "\u7384\u4e4e", "5809": "\u4fd7", "5810": "\u8f6c\u53d8", "5811": "\u4e70\u5bb6", "5812": "\u5361\u8f66", "5813": "\u8bcd\u8bed", "5814": "\u65f6\u95f4\u957f", "5815": "\u5fcd\u8010", "5816": "\u6d88\u5931", "5817": "\u5531", "5818": "\u88e4\u5b50", "5819": "\u4eba\u683c", "5820": "\u65e9\u8336", "5821": "\u4e2d\u901a", "5822": "\u63a8\u6258", "5823": "\u4e00\u5730", "5824": "\u8c03\u8bd5", "5825": "\u6212", "5826": "\u533a\u5206", "5827": "\u5916\u6ee9", "5828": "\u652f\u6491", "5829": "\u6545\u4e8b\u6027", "5830": "\u4e24\u4e2a\u5c0f\u65f6", "5831": "\u5ff5\u5934", "5832": "\u54b8\u83dc", "5833": "\u8c61\u5f81", "5834": "\u597d\u611f", "5835": "\u4e00\u6392", "5836": "\u5148\u540e", "5837": "\u5e8a\u5934\u67dc", "5838": "\u89e3", "5839": "\u5c01\u5e95", "5840": "\u8fd1\u4ee3", "5841": "\u5ea6\u8fc7", "5842": "\u8718\u86db", "5843": "\u5f88\u90c1\u95f7", "5844": "\u793c\u5238", "5845": "\u800c\u6211", "5846": "\u5c1a\u672a", "5847": "\u5168\u90fd", "5848": "\u540e\u679c", "5849": "\u9019\u672c\u66f8", "5850": "\u5beb", "5851": "\u6731\u5143\u748b", "5852": "\u5a5a\u5bb4", "5853": "\u5f15\u53d1", "5854": "DDR2", "5855": "\u6301", "5856": "\u4e2d\u9014", "5857": "\u719f", "5858": "\u5fc3\u810f", "5859": "\u516c\u5e73\u5b9a\u5f8b", "5860": "\u66a7\u6627", "5861": "\u5178\u6545", "5862": "\u7b54", "5863": "\u7075\u611f", "5864": "\u52a0\u88c5", "5865": "\u556a\u5566", "5866": "\u4f2a", "5867": "\u62ce\u7740", "5868": "\u81ea\u4ece", "5869": "\u4f8b", "5870": "\u5f00\u7bb1", "5871": "\u6392\u884c", "5872": "\u6b7b\u677f", "5873": "\u4f1a\u51fa\u73b0", "5874": "\u6323\u624e", "5875": "\uff11", "5876": "\u5564\u9152", "5877": "\u8017\u7535", "5878": "\u62fc\u97f3", "5879": "\u5411\u6765", "5880": "\u4e16\u4e0a", "5881": "\u7535\u89c6\u8282\u76ee", "5882": "\u5b9a\u4ef7", "5883": "\u62db", "5884": "\u6311\u6218", "5885": "\u718a\u638c", "5886": "\u653e\u6c34", "5887": "\u51fa\u7248\u5546", "5888": "\u6b32\u7f62\u4e0d\u80fd", "5889": "\u541d\u556c", "5890": "\u5fc3\u5e95", "5891": "\u59d1\u5a18", "5892": "\u7ec6\u8bfb", "5893": "\u5230\u5bb6", "5894": "\u4e91", "5895": "\u6240\u8a00", "5896": "\u56fd\u4f01", "5897": "\u592a\u5389\u5bb3", "5898": "\u8986\u76d6", "5899": "\u89c1\u9762", "5900": "\u4f4f\u8fdb", "5901": "\u836f\u5e97", "5902": "\u5355\u8eab", "5903": "\u6211\u7684", "5904": "\u540e\u76d6", "5905": "\u6c89\u6d78", "5906": "\uff38", "5907": "\u4f8b\u5916", "5908": "\u77a7", "5909": "\u4e2d\u7b49", "5910": "\u51e0\u5757", "5911": "\u989d\u5916", "5912": "\u91cd\u8981\u6027", "5913": "mm", "5914": "\u544a", "5915": "\u610f\u6599", "5916": "\u8001\u7238", "5917": "\u5e73\u65e5", "5918": "\u878d", "5919": "\u89c1\u8bc1", "5920": "\u6ce8\u5b9a", "5921": "\u4ee5\u5185", "5922": "\u5580\u4ec0", "5923": "\u4e50\u56ed", "5924": "\u70e6\u4eba", "5925": "\u8fa6\u7406", "5926": "\u524d\u81fa", "5927": "\u4e00\u689d", "5928": "\u73a9\u5076", "5929": "\u79c9\u627f", "5930": "U100", "5931": "\u771f\u9898", "5932": "\u8def\u53e3", "5933": "\u5669\u68a6", "5934": "\u5199\u9519", "5935": "\u4eba\u53e3", "5936": "\u60ef", "5937": "\u8c6a\u534e\u9601", "5938": "\u897f\u697c", "5939": "\u9601", "5940": "88\u5143", "5941": "\u8d35\u91cd", "5942": "\u592a\u592a", "5943": "\u6d17\u8863\u623f", "5944": "\u684c\u9762", "5945": "\u4f4f\u4f4f", "5946": "\u5c55\u4f1a", "5947": "\u65f6\u4e0d\u65f6", "5948": "4\u672c", "5949": "\u653f\u7b56", "5950": "2\u5206\u949f", "5951": "\u5341", "5952": "a", "5953": "\u65c5\u884c\u56e2", "5954": "\u670d\u52a1\u53f0", "5955": "\u517b\u80b2", "5956": "\u70e4", "5957": "\u8fce\u5408", "5958": "\u5f53\u524d", "5959": "\u5468\u4e00", "5960": "\u7fa4", "5961": "\u4e24\u5468", "5962": "\u8f83\u6162", "5963": "\u4e00\u65e5", "5964": "0", "5965": "\u8863\u6a71", "5966": "\u672f\u8bed", "5967": "\u793e\u4f1a\u4e3b\u4e49", "5968": "\u65b0\u7248", "5969": "\u5c0f\u738b\u5b50", "5970": "\u9065\u8fdc", "5971": "\u4e2d\u570b", "5972": "\u773c\u7403", "5973": "\u5747\u6709", "5974": "\u7f16\u9020", "5975": "\u8131\u843d", "5976": "\u5570\u55e6", "5977": "\u4e00\u542c", "5978": "\u5217", "5979": "\u56fd\u5e86", "5980": "\u624b\u5199", "5981": "\u6bcd\u4e73", "5982": "\u591c\u603b\u4f1a", "5983": "\u4fdd\u5065\u54c1", "5984": "\u4fdd\u9669\u7bb1", "5985": "\u536b\u661f", "5986": "\u5976\u5976", "5987": "\u59a8", "5988": "\u67e5\u7406", "5989": "DELL", "5990": "\u5355\u6761", "5991": "\u4e00\u9635\u5b50", "5992": "\u5e73\u9762", "5993": "\u653e\u5047", "5994": "\u90a3\u4e2a\u65f6\u4ee3", "5995": "\u626d\u66f2", "5996": "\u673a\u68b0", "5997": "\u6b23\u559c", "5998": "\u54ac", "5999": "45", "6000": "\u5431\u5431", "6001": "\u53eb\u9192", "6002": "\u523b", "6003": "\u62c9\u809a\u5b50", "6004": "\u5c01\u88c5", "6005": "3\u5143", "6006": "\u4e1c\u5238", "6007": "\u4e8b\u9879", "6008": "\u4e3b\u7f16", "6009": "\u9601\u4e0b", "6010": "\u5a1c\u5a1c", "6011": "\u6b65\u884c\u8857", "6012": "\u767b", "6013": "\u63d2\u5165", "6014": "1\u5929", "6015": "\u8f71\u8f98\u8f71\u8f98\u8f6c", "6016": "\u56db\u6b21", "6017": "\u50bb\u74dc", "6018": "\u4e00\u53e3", "6019": "\u4ece\u5934", "6020": "\u81ea\u5b66", "6021": "\u4e0b\u518c", "6022": "\u6cd5\u56fd", "6023": "\u4f18", "6024": "\u4e0d\u7981", "6025": "\u7b14\u8c03", "6026": "\u540d\u58f0", "6027": "\u8e29", "6028": "\u6bdb\u4e3b\u5e2d", "6029": "\u6253\u6298\u6263", "6030": "\u5c3d\u529b", "6031": "\u65e0\u8bdd\u53ef\u8bf4", "6032": "\u624b\u6478", "6033": "\u536b\u751f\u7eb8", "6034": "\u9192\u4e86", "6035": "\u5c0f\u83dc", "6036": "\u7897", "6037": "\u7535\u8111\u57ce", "6038": "\u573a\u5408", "6039": "\u7231\u7740", "6040": "of", "6041": "\u518d\u8ba2", "6042": "\u5b64\u5355", "6043": "\u6709\u75c5", "6044": "\u591a\u641e", "6045": "\u5bf9\u624b", "6046": "\u80dc\u5229", "6047": "\u7740\u5b9e", "6048": "\u5e16\u5b50", "6049": "\u5b81\u53ef", "6050": "\u4e0d\u4eae", "6051": "\u6210\u5c31\u611f", "6052": "\u4e0d\u548b\u5730", "6053": "\u5e10\u53f7", "6054": "\u4e58\u5750", "6055": "\u957f\u5b81\u8def", "6056": "\u5d07\u62dc", "6057": "\u8282\u594f", "6058": "\u504f\u4f4e", "6059": "\u5927\u57ce\u5e02", "6060": "\u96d6\u7136", "6061": "\u8b93", "6062": "\u4e00\u8d9f", "6063": "\u4e8c\u6b21", "6064": "\u7167\u6837", "6065": "\u4ee3\u5de5", "6066": "\u7cbe\u901a", "6067": "\u6218\u573a", "6068": "\u5929\u751f", "6069": "\u8fd9\u4e9b\u4eba", "6070": "\u9c9c", "6071": "6\u82af", "6072": "it", "6073": "\u5f88\u597d\u73a9", "6074": "\u7acb\u4f53", "6075": "2M", "6076": "s", "6077": "\u8d44\u683c", "6078": "\u65e0\u9700", "6079": "\u5e38\u4eba", "6080": "\u8d9f", "6081": "\u5170\u5dde", "6082": "\u5609\u5cea\u5173", "6083": "\u5934\u9876", "6084": "\u8f86", "6085": "\u6b4c", "6086": "\u4e3b\u4efb", "6087": "\u5ec9\u4ef7", "6088": "120G", "6089": "\u7f3a\u9875", "6090": "\u878d\u5165", "6091": "\u548c\u5e73", "6092": "\u7ae5\u4e66", "6093": "\u7231\u770b", "6094": "90\u5e74\u4ee3", "6095": "\u524d\u5f80", "6096": "\u6eaa\u53e3", "6097": "\u672c\u4e8b", "6098": "\u90bb\u5c45", "6099": "\u5f1f\u5f1f", "6100": "\u771f\u5207", "6101": "\u5e45", "6102": "\u9a8c\u8bc1", "6103": "\u95f9\u949f", "6104": "\u8fd9\u672c\u4e66\u5199", "6105": "\u4e0b\u53482\u70b9", "6106": "\u60e7\u6015", "6107": "\u4e0d\u7ecf\u610f", "6108": "\u7ee7\u627f", "6109": "\u5386\u7ecf", "6110": "\u4e0d\u914d", "6111": "\u6700\u4e3a", "6112": "\u75b2\u52b3", "6113": "\u529e\u597d", "6114": "\u5fc5\u5b9a", "6115": "\u7edd\u4e0d\u4f1a", "6116": "\u52a0\u73ed", "6117": "\u56de\u5f52", "6118": "\u51fa\u624b", "6119": "\u9003", "6120": "\u52a3\u8d28", "6121": "\u5f88\u591a\u5e74", "6122": "\u767e\u4f73", "6123": "\u62b5\u5236", "6124": "\u8fd0\u8f93", "6125": "\u5f39\u6027", "6126": "\u800c\u6210", "6127": "\u81ea\u9a7e\u6e38", "6128": "\u76f2\u76ee", "6129": "\u4e0d\u8d77\u773c", "6130": "\u51e1", "6131": "\u7d27\u90bb", "6132": "\u5317\u6d77", "6133": "\u6240\u9700", "6134": "\u8fc7\u51e0\u5929", "6135": "\u98ce\u9669", "6136": "\u523a\u773c", "6137": "\u5e73\u5eb8", "6138": "\u6307\u6807", "6139": "\u8d8a\u597d", "6140": "\u5236\u5b9a", "6141": "\u51b2\u6d17", "6142": "\u4e00\u4e2a\u4e00\u4e2a", "6143": "\u6361", "6144": "\u9633\u6714", "6145": "\u5934\u4e0a", "6146": "\u7b2c\u4e09\u65b9", "6147": "\u95f9\u5e02", "6148": "\u5c0f\u8d44", "6149": "\u7535\u91cf", "6150": "\u5e38\u4f4f", "6151": "\u4e8c\u5e74\u7ea7", "6152": "\u6284", "6153": "\u7d27\u5bc6", "6154": "\u6b7b\u4ea1", "6155": "\u4eba\u624b", "6156": "\u5e03\u8349", "6157": "\u8fce\u63a5", "6158": "\u5fc5\u5907", "6159": "\u5305\u5bb9", "6160": "\u6709\u70b9\u5361", "6161": "8\u5c0f\u65f6", "6162": "\u4efb", "6163": "\u7406\u776c", "6164": "\u53f2", "6165": "\u5496\u5561\u5385", "6166": "\u81ea\u4e3b", "6167": "\u7aef", "6168": "\u623f\u79df", "6169": "\u9999\u8549", "6170": "\u6c5f", "6171": "2999", "6172": "\u7c98\u7740", "6173": "\u5168\u5929", "6174": "\u8033\u6735", "6175": "\u5468", "6176": "\u8eab\u5fc3", "6177": "\u5f53\u4e8b\u4eba", "6178": "\u5f53\u9762", "6179": "\u5206\u4e3a", "6180": "\u6e05\u4e8c\u695a", "6181": "\u5f80\u4e0a", "6182": "\u5750\u8f66", "6183": "\u9152\u7ea2\u8272", "6184": "\u7b49\u5019", "6185": "\u6210\u5e74\u4eba", "6186": "\u7b28\u91cd", "6187": "\u62ff\u4e0b\u6765", "6188": "\u8dd1\u8d77\u6765", "6189": "\u6d77\u62a5", "6190": "\u592a\u65e9", "6191": "\u6b66\u6c49", "6192": "\u5fc3\u7406\u54a8\u8be2\u5e08", "6193": "\u4f5c\u4e1a", "6194": "\u5954\u817e", "6195": "\u52a8\u753b\u7247", "6196": "\u4e09\u5c42", "6197": "\u9762\u4e34", "6198": "\u53e3\u7891", "6199": "\u4e00\u8282", "6200": "\u7ca4\u8bed", "6201": "\u63d0\u95ee", "6202": "\u63a5\u5f85\u5458", "6203": "\u4e00\u4fa7", "6204": "\u8fdc\u5904", "6205": "\u6700\u5c11", "6206": "\u6cbb", "6207": "\u591a\u957f\u65f6\u95f4", "6208": "\u5206\u7c7b", "6209": "\u62db\u5f85", "6210": "\u65e0\u52a8\u4e8e\u8877", "6211": "7\u5c0f\u65f6", "6212": "\u5927\u672c", "6213": "\u6316", "6214": "\u5b9d\u85cf", "6215": "\u653e\u624b", "6216": "400\u5143", "6217": "\u6742\u97f3", "6218": "\u4f5b\u6559", "6219": "\u5185\u5fc3\u4e16\u754c", "6220": "\u6c11\u4e3b", "6221": "\u73b0\u72b6", "6222": "\u5475", "6223": "\u9ad8\u4ef7", "6224": "\u95ee\u8def", "6225": "\u4e0d\u5177\u5907", "6226": "\u597d\u4e60\u60ef", "6227": "\u505a\u68a6", "6228": "\u6478\u4e0a\u53bb", "6229": "\u667a\u8005\u89c1\u667a", "6230": "\u6539\u9769", "6231": "\u7f16\u6392", "6232": "\u865a\u5047", "6233": "\u80fd\u91cf", "6234": "\u5b57\u8ff9", "6235": "\u4e0d\u65ad\u5730", "6236": "\u7f57\u5217", "6237": "\u5468\u56db", "6238": "\u4e94\u5929", "6239": "\u6703", "6240": "\u8bf4\u4e0d\u8fc7\u53bb", "6241": "\u611f\u6069", "6242": "\u4e00\u6b21\u6b21", "6243": "\u524d\u8fdb", "6244": "\u610f\u5927\u5229", "6245": "\u673a\u6784", "6246": "\u7231\u7406\u4e0d\u7406", "6247": "\u53cc\u8bed", "6248": "4\u5c42", "6249": "\u667a\u5546", "6250": "\u6700\u65e9", "6251": "\u7ae0", "6252": "\u72e0", "6253": "\u8584\u8584", "6254": "\u4e70\u5355", "6255": "\u54c1\u4f4d", "6256": "\u4e13\u4e1a\u4eba\u58eb", "6257": "\u8bbe\u6709", "6258": "\u5ef6\u957f", "6259": "\u7248\u9762", "6260": "\u8fde\u8f7d", "6261": "\u5f53\u4e0b", "6262": "\u6cdb\u6cdb", "6263": "\u9875\u7801", "6264": "\u5e02\u5185", "6265": "\u529b\u6c14", "6266": "\u516d\u672c", "6267": "\u5f80\u540e", "6268": "\u8d3a\u987f", "6269": "\u6210\u7ee9", "6270": "\u4e16\u4eba", "6271": "\u6b21\u65e5", "6272": "\u56f0\u6270", "6273": "\u540c\u5b66\u4eec", "6274": "\u5ba1\u7f8e", "6275": "\u524d\u8a00", "6276": "\u6df1\u6c89", "6277": "\u5e73\u9065", "6278": "\u4e0a\u8857", "6279": "\u62d0\u89d2", "6280": "2g", "6281": "\u8b6c\u5982", "6282": "M", "6283": "\u5730\u4e0b\u5ba4", "6284": "\u8f6c\u8ba9", "6285": "\u7ae5\u8da3", "6286": "\u521b\u4f5c", "6287": "\u8fc7\u5ea6", "6288": "\u5305\u88c5\u7bb1", "6289": "\u5fc3\u58f0", "6290": "\u5403\u9971", "6291": "\u7eff\u5316", "6292": "\u5bfc\u6f14", "6293": "\u89c4\u6a21", "6294": "40", "6295": "\u534e\u5c14\u8857", "6296": "\u9884\u7ea6", "6297": "\u7528\u8f66", "6298": "\u5473", "6299": "\u8bfb\u6765", "6300": "\u4e0a\u5468", "6301": "office", "6302": "\u590d\u8ff0", "6303": "\u8be6\u5c3d", "6304": "\u8bb0\u5fc6\u529b", "6305": "\u6842\u6797", "6306": "\u8336\u53f6", "6307": "\u8bf4\u6765", "6308": "8\u5757", "6309": "\u7247\u5b50", "6310": "\u5357\u4eac\u8def", "6311": "\u89e3\u8131", "6312": "\u8bba\u8bc1", "6313": "\u5e73\u548c", "6314": "\u5404\u7c7b", "6315": "\u5feb\u5feb", "6316": "\u53ef\u4eba", "6317": "\u7ba1\u7528", "6318": "\u6e29\u67d4", "6319": "\u8fd9\u4e48\u8bf4", "6320": "\u7206\u53d1", "6321": "\u505c\u8f66\u8d39", "6322": "\u670d\u52a1\u4e1a", "6323": "\u5fae", "6324": "\u81f3\u5982\u5f52", "6325": "\u5408\u5e86", "6326": "\u6d3e\u9001", "6327": "\u523b\u9aa8\u94ed\u5fc3", "6328": "\u4e0d\u53ea", "6329": "\u8dcc", "6330": "#", "6331": "\u8d85\u957f", "6332": "\u4ed3\u4fc3", "6333": "\u5f71\u54cd\u529b", "6334": "\u5206\u79bb", "6335": "\u8fd1\u51e0\u5e74", "6336": "\u5185\u5916", "6337": "\u73cd\u8d35", "6338": "\u8d26", "6339": "DVD\u523b\u5f55\u673a", "6340": "\u63d0\u53ca", "6341": "\u524d\u5385", "6342": "\u5c45\u6c11", "6343": "\u4ecd\u672a", "6344": "\u5fe7\u4f24", "6345": "\u732a", "6346": "\u660e\u6717", "6347": "\u72fc", "6348": "\u7b28", "6349": "\u8ff7\u5931", "6350": "\u4e03\u4e2a\u6708", "6351": "\u62e8\u53f7", "6352": "\u98df\u5802", "6353": "\u6e05\u6f88", "6354": "\u54c1\u683c", "6355": "\u6b3a\u8bc8", "6356": "\u70b9\u6ef4", "6357": "\u5112\u5bb6", "6358": "\u8bef\u89e3", "6359": "\u8001\u5144", "6360": "\u76f8\u6bd4\u8f83", "6361": "\u6b3a\u5ba2", "6362": "\u6df1\u8fdc", "6363": "27\u53f7", "6364": "\u9a6c\u60a6\u51cc", "6365": "b", "6366": "\u9177\u777f", "6367": "\u8bf4\u8d77", "6368": "\u81ea\u9a7e", "6369": "6\u4e2a", "6370": "\u900f\u9876", "6371": "\u57fa\u4e8e", "6372": "\u7537\u58eb", "6373": "\u8bd5\u673a", "6374": "\u5256\u6790", "6375": "\u5199\u7ed9", "6376": "\u5b50\u5973", "6377": "\u7f1d", "6378": "\u4e00\u500d", "6379": "\u7ea6\u5b9a", "6380": "\u7b11\u6b7b", "6381": "\u66f4\u4f55\u51b5", "6382": "\u63d2\u66f2", "6383": "\u7b2c\u4e8c\u4e2a", "6384": "\u9493\u9c7c", "6385": "\u826f\u591a", "6386": "\u95f4\u9694", "6387": "\u4f18\u5148", "6388": "ing", "6389": "\u6d41\u7a0b", "6390": "\u538b\u7f29", "6391": "\u61c9\u8a72", "6392": "\u55ce", "6393": "\u90e8\u4efd", "6394": "\u5236\u9020", "6395": "\u65e9\u65e5", "6396": "\u6bdb\u53d1", "6397": "\u5f52\u7c7b", "6398": "\u8d76\u8d70", "6399": "\u8bef\u4f1a", "6400": "\u529f\u529b", "6401": "\u5bfc\u6e38", "6402": "\u8fc7\u5f80", "6403": "\u6cb3", "6404": "\u5206\u914d", "6405": "\u676d\u5dde", "6406": "8\uff1a30", "6407": "home", "6408": "\u5c0f\u5df4", "6409": "\u6fc0\u60c5", "6410": "\u5982\u6f6e", "6411": "\u53ef\u8c13", "6412": "\u9ad8\u539f", "6413": "\u597d\u89c9", "6414": "\u6f06\u9762", "6415": "\u5e94\u662f", "6416": "\u7535\u5b50\u4ea7\u54c1", "6417": "\u597d\u5fc3\u60c5", "6418": "\u94f6\u8272", "6419": "\u6cbb\u75c5", "6420": "\u7b14\u8bb0", "6421": "\u5411\u4e0a", "6422": "\u9ad8\u7ea7\u7248", "6423": "\u8868\u6f14", "6424": "\u591a\u65e5", "6425": "\u611f\u67d3", "6426": "3470", "6427": "\u73a9\u800d", "6428": "\u5171\u4eab", "6429": "\u7d20\u517b", "6430": "\u6234\u5c14", "6431": "1\u7c73", "6432": "\u8033\u8fb9", "6433": "298", "6434": "\u6d6e\u8e81", "6435": "\u5ffd\u89c6", "6436": "\u540e\u7eed", "6437": "\u56de\u62a5", "6438": "\u517c", "6439": "\u5de5\u5382", "6440": "\u4e09\u661f\u9152\u5e97", "6441": "\u8111\u5b50", "6442": "30\u5ea6", "6443": "\u5f97\u51fa", "6444": "\u901d\u53bb", "6445": "\u9876\u7ea7", "6446": "\u5e7d\u9759", "6447": "\u95fb", "6448": "\u5ead\u9662", "6449": "\u4e0d\u77e5\u4e0d\u89c9", "6450": "\u5c31\u95ee", "6451": "\u9a6c\u864e", "6452": "\u9ad8\u4f4e", "6453": "\u82cd\u767d", "6454": "\u4f53\u5473", "6455": "\u4e0d\u5b8c", "6456": "4\u5c0f\u65f6", "6457": "\u7b49\u4eba", "6458": "\u5b9e\u9a8c", "6459": "\u5206\u660e", "6460": "\u60f3\u6765", "6461": "\u540c\u80de", "6462": "\u7f51\u8d2d", "6463": "\u94c1", "6464": "\u9ad8\u5206", "6465": "\u5de5\u4f5c\u65e5", "6466": "\u7528\u4e8e", "6467": "\u80a1\u5e02", "6468": "\u7537\u5b69\u5b50", "6469": "\u76ae\u76ae", "6470": "\u773c\u4e2d", "6471": "2008\u5e74", "6472": "\u6d17\u6fa1\u95f4", "6473": "\u6bdb", "6474": "\u5bf9\u4ed8", "6475": "\u7a7f\u68ad", "6476": "\u6d4b", "6477": "\u68a6\u5e7b", "6478": "4\u70b9", "6479": "\u5ffd\u51b7\u5ffd\u70ed", "6480": "\u540e\u6765\u8005", "6481": "\u5b9c\u5bb6", "6482": "\u74f6\u9888", "6483": "\u6bcf\u4e2a\u5b69\u5b50", "6484": "\u9078\u64c7", "6485": "\u9152\u70b9", "6486": "\u5e74\u9f84\u6bb5", "6487": "\u4e5f\u7f62", "6488": "ATI", "6489": "\u52a8\u4e0d\u52a8", "6490": "\u8349\u539f", "6491": "\u4e24\u518c", "6492": "\u53d1\u90ae\u4ef6", "6493": "\u53bf\u57ce", "6494": "\u4e45\u4e45", "6495": "\u6837", "6496": "\u6094", "6497": "\u6279", "6498": "\u65e9\u65e9", "6499": "\u83b7\u76ca", "6500": "\uff1c", "6501": "\uff1e", "6502": "\u6df7\u6742", "6503": "\u4e50\u610f", "6504": "you", "6505": "\u8db3\u8ff9", "6506": "\u793e", "6507": "\u8349", "6508": "\u9519\u8fc7\u4e86", "6509": "\u5de6\u53f3\u952e", "6510": "\u8d2d\u7269\u4e2d\u5fc3", "6511": "\u597d\u574f", "6512": "\u6574\u665a", "6513": "qq", "6514": "\u7231\u62a4", "6515": "\u53d1\u7ed9", "6516": "\u6587\u4eba", "6517": "\u7b14\u6cd5", "6518": "\u4e0d\u5b89", "6519": "\u8ff9\u8c61", "6520": "N\u6b21", "6521": "\u5341\u51e0\u9875", "6522": "\u4e0d\u7b49", "6523": "\u54ea\u513f", "6524": "\u518d\u7528", "6525": "\u4e00\u73ed", "6526": "\u8ff7\u5bab", "6527": "\u53d8\u901a", "6528": "\u65e5\u7acb", "6529": "720P", "6530": "3D\u6e38\u620f", "6531": "\u795e\u821f", "6532": "\u4e00\u7ebf", "6533": "\u7d22\u83f2\u7279", "6534": "\u7ec4\u6210", "6535": "\u53e4\u5178", "6536": "\u610f\u5883", "6537": "\u597d\u591a\u6b21", "6538": "\u5b66\u8bf4", "6539": "LOGO", "6540": "\u9644\u6709", "6541": "\u9c81\u8fc5", "6542": "\u590d\u5236", "6543": "\u8bf7\u6ce8\u610f", "6544": "\u8e69\u811a", "6545": "T400", "6546": "\u505a\u5b8c", "6547": "\u4f4f\u623f", "6548": "\u62fc\u547d", "6549": "\u5f2f\u8def", "6550": "\u97f3", "6551": "\u9ec4\u6cb3", "6552": "\u4fdd\u969c", "6553": "\u76f8\u5b88", "6554": "\u4e0a\u5347", "6555": "\u513f\u7ae5\u6587\u5b66", "6556": "\u5e72\u561b", "6557": "\u51b0\u51b7", "6558": "\u5c40\u9650\u6027", "6559": "\u50b2\u6162", "6560": "\u7b7e\u8ba2", "6561": "\u611f\u4f24", "6562": "\u7f51\u8bc4", "6563": "\u540e\u5c71", "6564": "\u88f8\u673a", "6565": "\u9aa8\u5934", "6566": "\u6dd8\u5b9d", "6567": "\u9a6c\u4e91", "6568": "\u8fa3", "6569": "\u552e", "6570": "\u73ed\u4e3b\u4efb", "6571": "\u6709\u5173\u7cfb", "6572": "\u901a\u8bfb", "6573": "\u9753\u4e3d", "6574": "\u6599", "6575": "\u6a59\u6c41", "6576": "\u4e3b\u4e49", "6577": "\u5c71\u666f\u623f", "6578": "\u4e8c\u5341\u5206\u949f", "6579": "\u753b\u753b", "6580": "\u5357", "6581": "\u6b64\u79cd", "6582": "\u6643", "6583": "\u6606\u866b", "6584": "\u7edd\u671b", "6585": "\u6298\u6263", "6586": "\u7504\u5bf0", "6587": "\u62bc", "6588": "YY", "6589": "SL400", "6590": "\u7b11\u58f0", "6591": "\u9f13\u638c", "6592": "\u4eba\u6587", "6593": "40%", "6594": "\u8ff7", "6595": "\u8840\u578b", "6596": "\u9a8c", "6597": "\u8857\u4e0a", "6598": "\u7eaf\u771f", "6599": "\u4e94\u5b98", "6600": "\u6ca1\u6709\u7528", "6601": "\u6807\u79f0", "6602": "2007", "6603": "\u5f39\u51fa", "6604": "\u6377\u5f84", "6605": "\u5de5\u4f5c\u8005", "6606": "\u65e0\u77e5", "6607": "\u56fe\u753b\u4e66", "6608": "\u5168\u80fd", "6609": "\u4e0d\u5b9a", "6610": "\u7b97\u4e0d\u7b97", "6611": "\u4e00\u4f53", "6612": "\u6321\u4f4f", "6613": "\u6bcf\u5bb6", "6614": "\u5c42\u6b21", "6615": "\u504f\u6fc0", "6616": "\u7410\u788e", "6617": "\u559d\u6c34", "6618": "\u5c0f\u58f0", "6619": "\u6362\u4e0a", "6620": "\u5907", "6621": "\u76ae\u5b9e", "6622": "\u5149\u6ed1", "6623": "\u7384", "6624": "\u7b2c\u4e8c\u5929\u4e0b\u5348", "6625": "\u73b0\u4ee3\u5316", "6626": "\u7f57\u55e6", "6627": "\u5927\u9a6c\u8def", "6628": "\u5408\u4e0a", "6629": "\u9ad8\u9ad8", "6630": "\u603b\u80fd", "6631": "\u9500\u552e\u91cf", "6632": "\u518c", "6633": "\u4e0d\u95ee", "6634": "\u5f39", "6635": "\u7f51\u5427", "6636": "\u7a00\u996d", "6637": "\u666e\u901a\u7248", "6638": "\u8bf7\u6c42", "6639": "\u59d1\u4e14", "6640": "25\u53f7", "6641": "\u8fd4\u73b0", "6642": "\u59a8\u788d", "6643": "\u4ea4\u4ee3", "6644": "\u8bf4\u4e0d\u5b9a", "6645": "28", "6646": "\u4e00\u65f6", "6647": "\u62b5", "6648": "\u5931\u843d", "6649": "\u53ea\u56e0", "6650": "hotel", "6651": "is", "6652": "1394", "6653": "\u9662\u5b50", "6654": "\u91d1\u5361", "6655": "\u539a\u539a", "6656": "\u4ef7\u5ec9\u7269\u7f8e", "6657": "\u8bc1\u636e", "6658": "\u6280\u80fd", "6659": "\u62c9\u5f00", "6660": "\u4e00\u89c1", "6661": "\u53cc\u9762\u80f6", "6662": "\u610f\u5473\u7740", "6663": "\u542f\u52a8\u9879", "6664": "\u5b9d", "6665": "\u889c\u5b50", "6666": "\u8fea\u65af\u5c3c", "6667": "\u6700\u7f8e", "6668": "\u4f1a\u5bfc\u81f4", "6669": "\u8d5e\u626c", "6670": "\u5f15\u5b50", "6671": "\u60b2\u60c5", "6672": "\u63ea\u5fc3", "6673": "1000\u5143", "6674": "\u5c0f\u6c7d\u8f66", "6675": "\u6bcf\u5f53", "6676": "\u5c3d\u7136", "6677": "\u539f\u914d", "6678": "\u540c\u4e8b\u4eec", "6679": "\u542c\u542c", "6680": "\u5149\u987e", "6681": "\u516c\u5171\u6c7d\u8f66", "6682": "\u6b27\u6d32", "6683": "\u4e00\u53cc", "6684": "\u674e\u751f", "6685": "\u94dc\u9523\u6e7e", "6686": "\u52e4\u594b", "6687": "\u5929\u771f", "6688": "\u4e2d\u5eb8", "6689": "\u4e0b\u5c5e", "6690": "\u9694\u5f00", "6691": "\u9ad8\u5cf0", "6692": "\u4e0d\u7ba1\u7528", "6693": "\u5634\u5df4", "6694": "c", "6695": "\u603b\u7ecf\u7406", "6696": "\u6216\u591a\u6216\u5c11", "6697": "\u6263\u9664", "6698": "\u4e86\u4e0d\u8d77", "6699": "\u6cb9\u6f06\u5473", "6700": "68\u5143", "6701": "\u5305\u5934", "6702": "\u8f7b\u8f68", "6703": "6\u4e2a\u591a\u5c0f\u65f6", "6704": "\u8bc9\u8bf4", "6705": "\u7b2c\u4e00\u53f0", "6706": "\u63d2\u753b", "6707": "sp3", "6708": "\u672c\u5730\u4eba", "6709": "\u83dc\u8c31", "6710": "2\u5206", "6711": "\u5c5e\u4e8e\u81ea\u5df1", "6712": "\u7a97\u53f0", "6713": "\u6cdb\u6d77", "6714": "\u8499\u8499", "6715": "\u5fb7\u884c", "6716": "\u903c", "6717": "\u505a\u4e0d\u5230", "6718": "3000", "6719": "\u70b9\u51fb", "6720": "\u5bc4\u7ed9", "6721": "\u4e13\u4e1a\u6027", "6722": "\u4e00\u5e45", "6723": "\u5448\u73b0", "6724": "\u6c49\u5a1c", "6725": "\u758f\u5ffd", "6726": "\u5e02\u573a\u7ecf\u6d4e", "6727": "\u4e34\u8d70", "6728": "\u627f\u5305", "6729": "4G", "6730": "\u9f99\u95e8\u77f3\u7a9f", "6731": "\u6613\u5b66", "6732": "\u5b89\u5fc3", "6733": "\u62d6\u6c93", "6734": "\u4eba\u529b\u8d44\u6e90", "6735": "\u6536\u8d2d", "6736": "\u9ad8\u6863", "6737": "\u7eb8\u4e0a", "6738": "\u4e66\u4eba", "6739": "\u4e8b\u4f8b", "6740": "\u5ba1\u89c6", "6741": "\u519c\u6c11", "6742": "\u5c0f\u5e97", "6743": "\u500d", "6744": "\u7eaa\u5b9e", "6745": "\u504f\u5411", "6746": "\u63a9\u76d6", "6747": "\u54a3\u5f53", "6748": "\u9019\u5bb6", "6749": "\u4e0d\u932f", "6750": "\u500b", "6751": "\u767b\u8a18", "6752": "1\u70b9", "6753": "\u8bd5\u9a8c", "6754": "\u62a5\u4ee5", "6755": "\u8c28\u614e", "6756": "\u5149\u8292", "6757": "\u5047\u88c5", "6758": "\u90ae\u7bb1", "6759": "14\u53f7", "6760": "\u884c\u8d70", "6761": "\u5f88\u5e78\u8fd0", "6762": "\u5730\u6f0f", "6763": "\u4f1a\u5fc3", "6764": "\u89e3\u653e\u7891", "6765": "\u6469\u64e6", "6766": "\u7ec8", "6767": "\u5206\u5de5", "6768": "\u96be\u9898", "6769": "\u9664\u5916", "6770": "\u4e0a\u90e8", "6771": "\u534a\u8fb9", "6772": "\u5426\u8ba4", "6773": "\u529e\u516c\u697c", "6774": "\u7ed3\u8bba", "6775": "\u4e3b\u4eba", "6776": "\u6253\u8d25", "6777": "\u4e09\u89d2\u5f62", "6778": "\u5f80\u6765", "6779": "\u5171\u7528", "6780": "\u6263\u6b3e", "6781": "\u5751", "6782": "\u9884\u7b97", "6783": "\u4e0e\u4f17\u4e0d\u540c", "6784": "logo", "6785": "\u5199\u4e0b", "6786": "\u795e\u8bdd", "6787": "\u9b54\u6cd5", "6788": "\u8c03\u76ae", "6789": "2\u6761", "6790": "\u300c", "6791": "\u300d", "6792": "2008\u5e748\u670811\u65e5", "6793": "\u5de5\u4f5c\u65f6\u95f4", "6794": "\u628a\u5173", "6795": "\u4f5c\u5e8f", "6796": "\u8bb2\u575b", "6797": "\u7c73", "6798": "1\u95f4", "6799": "\u6781\u70b9", "6800": "\u6b63\u6587", "6801": "\u7a7f\u8fc7", "6802": "\u60f3\u5403", "6803": "\u505c\u6c34", "6804": "\u679c\u7bee", "6805": "\u5356\u573a", "6806": "\u8be1\u5f02", "6807": "\u8eab\u4e3a", "6808": "\u62e6\u8f66", "6809": "\u62e6", "6810": "\u75af\u4e86", "6811": "\u95e8\u94c3", "6812": "\u5feb\u9012\u516c\u53f8", "6813": "\u7eaa\u5f55\u7247", "6814": "\u6587\u7269", "6815": "\u54e5\u4eec", "6816": "\u8d77\u6b65", "6817": "\u9a82", "6818": "\u987f", "6819": "\u5bcc\u6709", "6820": "\u6e05\u6668", "6821": "\u6d53\u6d53", "6822": "\u7092\u80a1", "6823": "\u4e13", "6824": "\u6bb5\u843d", "6825": "\u53ef\u5426", "6826": "10\u5c81", "6827": "\u5e8a\u94fa", "6828": "\u8eb2", "6829": "\u6b7b\u4eba", "6830": "\u5b9e\u5219", "6831": "\u65e0\u60c5", "6832": "\u7528\u60c5", "6833": "\u60ca\u9669", "6834": "\u573a\u9762", "6835": "\u58f0\u54cd", "6836": "\u8c61\u8bdd", "6837": "\u4e09\u904d", "6838": "\u5634\u91cc", "6839": "\u7591\u60d1", "6840": "\u97e9\u5f0f", "6841": "168", "6842": "\u54c1", "6843": "\u8303\u4f8b", "6844": "\u6da8\u4ef7", "6845": "\u5269\u4f59", "6846": "\u7b2c\u4e8c\u5929\u4e0a\u5348", "6847": "\u672a\u80fd", "6848": "\u81ea\u52a8\u5173\u673a", "6849": "\u6709\u6761\u4ef6", "6850": "\u76f8\u53bb\u751a\u8fdc", "6851": "\u75f4\u8ff7", "6852": "22", "6853": "\u9ebb\u6728", "6854": "\u6d6e\u73b0", "6855": "\u5bf9\u53f7", "6856": "\u5165\u5ea7", "6857": "\u516c\u56ed", "6858": "\u4e00\u8bf4", "6859": "\u56fd\u9645\u9152\u5e97", "6860": "\u547d\u4ee4", "6861": "2008\u5e747\u67082\u65e5", "6862": "\u67f3\u6c5f", "6863": "\u5206\u8fa8", "6864": "\u4e13\u4eba", "6865": "\u5bf9\u8d26\u5355", "6866": "\u5f00\u5e55\u5f0f", "6867": "\u4f59\u989d", "6868": "\u5171\u6709", "6869": "\u6728", "6870": "\u8036", "6871": "\u5b9a\u623f", "6872": "512M", "6873": "\u8d2f\u7a7f", "6874": "\u65d7\u4e0b", "6875": "\u81ea\u4ee5\u4e3a\u662f", "6876": "\u539f\u59cb", "6877": "\u79f0\u53f7", "6878": "180", "6879": "\u4e24\u74f6", "6880": "\u53cd\u5dee", "6881": "\u5c97\u4f4d", "6882": "\u672c\u610f", "6883": "\u5197\u957f", "6884": "\u5c0f\u5973\u4eba", "6885": "\u4e0d\u5982\u6c42\u5df1", "6886": "\u8bd1\u672c", "6887": "\u7edf\u4e00", "6888": "\u6c34\u7eb9", "6889": "\u808c\u7406", "6890": "\u5de5\u5177\u4e66", "6891": "\u8d34\u4e0a", "6892": "\u5957\u8def", "6893": "\u516d\u4e00", "6894": "\u4ece\u65b0", "6895": "\u8fdf\u949d", "6896": "\u8d70\u51fa\u53bb", "6897": "\u5c0f\u518c\u5b50", "6898": "\u95f2\u6687", "6899": "20\u53f7", "6900": "\u5b89\u5e86", "6901": "\u9178", "6902": "\u6db2\u6676", "6903": "\u5468\u4e94", "6904": "\u4eb2\u621a", "6905": "\u6d17\u793c", "6906": "\u5706\u6ee1", "6907": "60\u5929", "6908": "\u5546\u57ce", "6909": "\u4fe1\u4ef0", "6910": "\u9c9c\u6d3b", "6911": "\u7535\u89c6\u53f0", "6912": "\u5382", "6913": "\u89e6\u63a7", "6914": "\u9893\u5e9f", "6915": "\u770b\u7247", "6916": "\u5c0f\u8def", "6917": "\u6253\u901a", "6918": "\u4e0a\u518c", "6919": "\u52a8\u4eba", "6920": "\u677e\u52a8", "6921": "\u5916\u5730", "6922": "\u623f\u53f7", "6923": "\u91d1\u9675", "6924": "\u724c", "6925": "\u5385", "6926": "\u9887", "6927": "\u6709\u5473", "6928": "\u4f55\u5904", "6929": "\u6210\u8bed", "6930": "\u7956\u56fd", "6931": "\u8f6e\u6e21", "6932": "12\u5929", "6933": "\u6c34\u6d41", "6934": "2008\u5e748\u67081\u65e5", "6935": "\u60a8\u4eec", "6936": "\u540c\u540d", "6937": "\u6781\u54c1", "6938": "\u60ac\u5ff5", "6939": "\u9886\u7565", "6940": "\u660e\u6653\u6eaa", "6941": "\u6700\u5c0f", "6942": "\u5c3d\u60c5", "6943": "\u4e0a\u5929", "6944": "XP\u76d8", "6945": "\u7a7a\u7a7a", "6946": "\u62c9\u8428", "6947": "\u72c2\u70ed", "6948": "28\u53f7", "6949": "6\u5c0f\u65f6", "6950": "\u53cc\u9762", "6951": "\u5145\u5b9e", "6952": "\u969c\u788d", "6953": "\u53ef\u8d35", "6954": "\u8bfe\u672c", "6955": "\u8212\u7545", "6956": "\u62dc\u8bbf", "6957": "\u4e66\u76ee", "6958": "\u82b1\u74e3", "6959": "A\u578b", "6960": "\u5582", "6961": "\u5443", "6962": "\u538c\u6076", "6963": "\u95e8\u7968", "6964": "\u8bc4\u4e3a", "6965": "\u6781\u5c11", "6966": "\u8fde\u7eed\u5267", "6967": "\u54ed\u6ce3", "6968": "\u634f", "6969": "\u7279\u6709", "6970": "\u4fbf\u6377\u6027", "6971": "\u8d58\u8ff0", "6972": "\u4e0d\u6536", "6973": "NBA", "6974": "\u6876\u88c5\u6c34", "6975": "\u660e\u53f2", "6976": "\u660e\u6708", "6977": "\u8f66\u58f0", "6978": "\u540c\u65b9", "6979": "\u6362\u6765", "6980": "256", "6981": "\u542c\u529b", "6982": "\u67e5\u9605", "6983": "\u6e38\u6cf3\u9986", "6984": "\u4f84\u5b50", "6985": "\u5341\u8db3", "6986": "\u6f6e\u6d41", "6987": "\uff0b", "6988": "\u65e0\u610f\u95f4", "6989": "D\u76d8", "6990": "\u8857\u5934", "6991": "\u53cc\u4eba\u5e8a", "6992": "\u5927\u623f", "6993": "\u6c89\u6dc0", "6994": "\u627e\u56de", "6995": "\u5947\u8ff9", "6996": "\u95f4\u63a5", "6997": "\u5feb\u7ebf", "6998": "80", "6999": "\u777f\u667a", "7000": "\u63ed\u793a", "7001": "\u52a9\u7406", "7002": "\u7f8e\u666f", "7003": "\u522b\u81f4", "7004": "\u4e00\u6a21\u4e00\u6837", "7005": "\u4e00\u6765", "7006": "1066", "7007": "\u4f20\u9012", "7008": "\u6025\u5207", "7009": "\u56e2", "7010": "\u5f3a\u8feb", "7011": "\u505a\u81ea\u5df1", "7012": "\u5929\u6daf", "7013": "\u597d\u4e8b", "7014": "2\u4e2a\u591a\u5c0f\u65f6", "7015": "\u5ffd\u7136", "7016": "\u4e09\u5206\u949f", "7017": "\u7b14", "7018": "\u8bb0\u9519", "7019": "\u76f8\u9694", "7020": "\u5927\u6709", "7021": "\u5468\u65e5", "7022": "\u5bc6\u5c01", "7023": "\u753b\u5bb6", "7024": "\u53d7\u4f24", "7025": "\u8fd9\u672c\u4e66\u4f1a", "7026": "\u51fa\u552e", "7027": "\u4eba\u4e91\u4ea6\u4e91", "7028": "\u800c\u53bb", "7029": "\u6539\u52a8", "7030": "\u8272\u6cfd", "7031": "\u5584\u4e8e", "7032": "3\u95f4", "7033": "\u5bb6\u957f\u4eec", "7034": "\u52a0\u5e8a", "7035": "dos", "7036": "\u53d1\u8a93", "7037": "\u8d81", "7038": "\u7eaf\u5c5e", "7039": "\u800c\u540e", "7040": "\u7535\u8bdd\u7ebf", "7041": "\u5199\u5b57\u697c", "7042": "\u4e0d\u6562\u82df\u540c", "7043": "NVIDIA", "7044": "GT", "7045": "\u5174\u81f4", "7046": "\u5305\u5b50", "7047": "\u65e9\u4e0a7\u70b9", "7048": "\u6742\u7269", "7049": "\u8840", "7050": "\u51b3\u5fc3", "7051": "\u5fc3\u9178", "7052": "\u6f02\u6d41", "7053": "\u5b57\u773c", "7054": "\u75c5\u4eba", "7055": "\u6743\u5a01", "7056": "\u5f00\u672c", "7057": "\u6765\u7535", "7058": "\u6307\u671b", "7059": "\u7740\u91cd", "7060": "\u5317\u9762", "7061": "\u77e5\u8bc6\u9762", "7062": "\u5408\u4f5c\u5173\u7cfb", "7063": "\u6253\u8868", "7064": "\u65b0\u673a", "7065": "\u59a5\u534f", "7066": "\u683c\u8c03", "7067": "\u7ed9\u670b\u53cb", "7068": "280", "7069": "\u8d23\u4efb\u611f", "7070": "\u4e66\u684c", "7071": "\u5835\u585e", "7072": "\u7ebf\u6761", "7073": "\u6362\u56de", "7074": "\u8001\u5927", "7075": "\u4f20\u9500", "7076": "\u8fd4", "7077": "\u697c\u6807", "7078": "\u6d77\u6d6a", "7079": "\u59d3", "7080": "40\u5206\u949f", "7081": "\u540d\u526f\u5176\u5b9e", "7082": "\uff16\uff0e\uff18\u6298", "7083": "\u75c5\u60c5", "7084": "\u597d\u8f6c", "7085": "\u4e00\u5e74\u591a", "7086": "\u9526\u5730\u661f\u5ea7", "7087": "\u8fd0\u7b97", "7088": "\u6628\u5929\u665a\u4e0a", "7089": "\u900f\u9732", "7090": "\u6df1\u53d7", "7091": "80\u540e", "7092": "\u6389\u7ebf", "7093": "\u5f3a\u786c", "7094": "\u8fc7\u5f97", "7095": "\u4e22\u5931", "7096": "\u8682\u8681", "7097": "\u6d01\u5177", "7098": "\u7b49\u7ea7", "7099": "\u968f\u5904\u53ef\u89c1", "7100": "\u7b49\u53f7", "7101": "\u4e00\u6b65", "7102": "\u4e09\u4e2a\u6708", "7103": "\u751f\u6d3b\u4e60\u60ef", "7104": "\u67e5\u67e5", "7105": "\u8bb2\u8bdd", "7106": "\u62c6\u5c01", "7107": "\u8fd8\u4e0d\u591f", "7108": "\u7701\u7535", "7109": "\u5305\u88c5\u76d2", "7110": "\u4e13\u5356\u5e97", "7111": "\u65e0\u80fd\u4e3a\u529b", "7112": "\u6240\u8b02", "7113": "\u8a71", "7114": "\u4f55\u5728", "7115": "\u537b", "7116": "\u7578\u5f62", "7117": "\u7b2c\u4e00\u5468", "7118": "\u6cbb\u7597", "7119": "\u6ce8", "7120": "2008\u5e748\u670813\u65e5", "7121": "298\u5143", "7122": "\u53e0", "7123": "\u901a\u4fd7\u6613\u61c2", "7124": "\u597d\u4e0d", "7125": "\u624b\u63d0", "7126": "\u8fd0\u4f5c", "7127": "\u60b2\u75db", "7128": "\u6696\u548c", "7129": "\u6c14\u5019", "7130": "\u53cd\u611f", "7131": "\u60ac\u7591", "7132": "\u75c7\u72b6", "7133": "\u5956", "7134": "\u6570\u72ec", "7135": "\u94bb", "7136": "\u56f0", "7137": "\u60c5\u4fa3", "7138": "\u4e8c\u5929", "7139": "\u6781\u4f73", "7140": "\u4f5c\u7f62", "7141": "\u53c8\u4e00\u6b21", "7142": "\u65e0\u8bba\u5982\u4f55", "7143": "900", "7144": "\u7acb\u5fd7", "7145": "\u65e0\u79c1", "7146": "\u9760\u7740", "7147": "\u9547", "7148": "\u65ad\u65ad\u7eed\u7eed", "7149": "\u52ff", "7150": "\u4e8b\u513f", "7151": "\u542b\u91cf", "7152": "\u4e2d\u94f6\u5927\u53a6", "7153": "\u4e0d\u6703", "7154": "\u6696\u98ce", "7155": "\u6ed4\u6ed4", "7156": "\u4e0d\u516c\u5e73", "7157": "\u7f38", "7158": "\u5947\u6162", "7159": "\u7f18\u5206", "7160": "\u5e73\u6574", "7161": "\u54ea\u4e48", "7162": "\u5b9e\u4f53\u5e97", "7163": "\u4e1c\u897f\u65b9", "7164": "\uff13", "7165": "\u811a\u5370", "7166": "\u51cc\u4e71", "7167": "\u65e0\u8f9c", "7168": "\u4e0b\u56de", "7169": "\u9875\u6570", "7170": "2\u5757", "7171": "\u6f14\u594f", "7172": "\u4e0d\u7b26\u5b9e", "7173": "\u5ab2\u7f8e", "7174": "\u725b\u8089", "7175": "\u6c61\u70b9", "7176": "\u9508", "7177": "\u7269\u7406", "7178": "\u8bfe\u5802", "7179": "\u5f15\u9886", "7180": "\u55bd", "7181": "\u4e00\u6c14\u5475\u6210", "7182": "\u738b\u5b50", "7183": "\u6e29\u6545", "7184": "\u51b7\u6e05", "7185": "\u573a\u6240", "7186": "\u865a\u6784", "7187": "\u70ed\u70c8", "7188": "\u65e0\u5c3d", "7189": "\u5965\u7279\u84dd\u661f", "7190": "\u5168\u8eab", "7191": "\u4e1c\u5317", "7192": "\u5c0f\u59b9", "7193": "\u5341\u5e74\u524d", "7194": "IT", "7195": "\u8d1f\u8d23\u4eba", "7196": "\u6d6a", "7197": "\u8574\u542b", "7198": "\u6709\u8f66", "7199": "\u6c34\u8d27", "7200": "\u53f0\u706f", "7201": "\u897f\u5355", "7202": "\u4f59\u5730", "7203": "\u65b0\u5efa", "7204": "\u5728\u8eab\u8fb9", "7205": "Ctrip", "7206": "\u5077", "7207": "\u8bfe\u7a0b", "7208": "3799", "7209": "\u521d\u604b", "7210": "\u8f70\u8f70\u70c8\u70c8", "7211": "\u5973\u53cb", "7212": "\u7ecf\u6d4e\u6027", "7213": "\u5bf9\u767d", "7214": "\u539a\u5ea6", "7215": "\u53e3\u5934", "7216": "\uff2e", "7217": "ddr3", "7218": "\u56fd\u5185\u5916", "7219": "\u8001\u4e09", "7220": "\u54d7\u5566", "7221": "\u6e29\u60c5", "7222": "\u89c2\u666f\u623f", "7223": "\u522b\u63d0", "7224": "ASUS", "7225": "\u5348\u591c", "7226": "\u786e\u4fdd", "7227": "\u8111\u7b4b", "7228": "\u6392\u540d", "7229": "\u8d76\u5230", "7230": "mbr", "7231": "\u95f4\u8ddd", "7232": "\u53f2\u5b9e", "7233": "\u5e97\u5bb6", "7234": "\u6de1\u5b9a", "7235": "\u8bbd\u523a", "7236": "\u6628\u5929\u4e0b\u5348", "7237": "\u5927\u4e00", "7238": "\u6ce1\u6cab", "7239": "\u673a\u7968", "7240": "\u4e0d\u904e", "7241": "\u547c\u547c", "7242": "\u516c\u5171", "7243": "\u56fd\u5bbe\u5927\u9152\u5e97", "7244": "\u7f8e\u5b66", "7245": "\u5c71\u4e1c", "7246": "\u6807\u51c6\u95f4", "7247": "\u97f3\u6807", "7248": "\u4f9b\u7535", "7249": "\u6076\u610f", "7250": "\u51b3\u4e0d", "7251": "17\u9875", "7252": "\u9519\u5b57", "7253": "OUT", "7254": "\u7e41\u591a", "7255": "\u5c01\u95ed", "7256": "\u716e", "7257": "\u5243\u987b\u5200", "7258": "\u51b0\u4f9d", "7259": "VGA", "7260": "\u9f20\u6807\u57ab", "7261": "\u5957\u88c5", "7262": "\u4eba\u50cf", "7263": "\u62d0", "7264": "\u4f1a\u5458\u5361", "7265": "\u8fd9\u4efd", "7266": "\u53d7\u7f6a", "7267": "9\u70b9\u949f", "7268": "\u7ea2\u697c", "7269": "\u8ff7\u7cca", "7270": "\u4e00\u987f", "7271": "\u5267\u60c5", "7272": "\u8def\u8fc7", "7273": "16\u5c42", "7274": "150\u5143", "7275": "\u7cdf\u8e4b", "7276": "\u542c\u97f3\u4e50", "7277": "\u5e73\u65b9", "7278": "\u65e0\u6570\u6b21", "7279": "\u6b63\u4e49", "7280": "\u8f6c\u5230", "7281": "\u53e4\u8001", "7282": "\u767d\u75f4", "7283": "30\u5c81", "7284": "\u5f53\u573a", "7285": "\u4e66\u672c\u8eab", "7286": "\u5339\u914d", "7287": "\u8bd1", "7288": "\u518d\u7248", "7289": "\u5976\u725b", "7290": "\u5e97\u65b9", "7291": "\u7ae5\u5fc3", "7292": "room", "7293": "stay", "7294": "\u62a5\u544a", "7295": "\u6446\u8131", "7296": "\u8bf4\u670d\u529b", "7297": "\u56fe\u6587\u5e76\u8302", "7298": "\u793a", "7299": "\uff0c\u6212", "7300": "\u7cbe\u9ad3", "7301": "\u5e72\u6d3b", "7302": "\u76f4\u9762", "7303": "\u4f4f\u5b85", "7304": "\u4e11", "7305": "\u6392\u6c34", "7306": "\u592a\u8fc7\u5206", "7307": "\u5c0f\u5c4b", "7308": "\u8bb8\u591a\u4eba", "7309": "\u62d6\u62c9\u673a", "7310": "\u96c6\u5408", "7311": "\u65f3", "7312": "\u5c0f\u578b", "7313": "\u5c0f\u5305", "7314": "\u6d25\u6d25\u6709\u5473", "7315": "\u9996", "7316": "\u53d7\u6b22\u8fce", "7317": "198", "7318": "\u623f\u5361", "7319": "\u9762\u76c6", "7320": "\u56fd\u8d27", "7321": "\u5bd2\u51b7", "7322": "\u5c71\u666f", "7323": "\u4e09\u5e74\u7ea7", "7324": "\u820a", "7325": "\u6d88\u5316", "7326": "\u4e0a\u4e58", "7327": "\u5fc3\u76ee", "7328": "\u4e0d\u5e94", "7329": "\u5199\u9053", "7330": "\u672c\u80fd", "7331": "\u6b32", "7332": "\u591a\u6837", "7333": "\u89c4\u683c", "7334": "\u5927\u529b", "7335": "\u6bcf\u6bcf", "7336": "\u5f80\u8fd4", "7337": "\u770b\u6d77", "7338": "\u70df\u5c42", "7339": "\u7159\u6c11", "7340": "\u5199\u660e", "7341": "\u5706\u6ed1", "7342": "\u5bb6\u65cf", "7343": "\u5f97\u5206", "7344": "\u5fd9\u788c", "7345": "\u6ce1\u6e29\u6cc9", "7346": "\u586b", "7347": "\u6cdb", "7348": "\u9884\u6599", "7349": "\u57fa\u8c03", "7350": "\u731c\u60f3", "7351": "\u62e8", "7352": "\u900a\u8272", "7353": "\u62a5\u590d", "7354": "\u963f\u884d", "7355": "RMB", "7356": "\u539a\u7231", "7357": "\u6253\u4e0d\u901a", "7358": "\u6cbf\u7740", "7359": "\u884c\u674e\u67b6", "7360": "\u5e2d\u68a6\u601d", "7361": "\u77e5\u654f", "7362": "\u966a\u540c", "7363": "\u6577", "7364": "\u4e2d\u610f", "7365": "30%", "7366": "\u7565\u6709", "7367": "\u76f4\u81f3", "7368": "\u6cf0\u5b89", "7369": "\u9694\u7740", "7370": "\u5355\u5355", "7371": "\u5927\u7406", "7372": "\u4e07\u4e8b\u8fbe\u9152\u5e97", "7373": "\u5f88\u6e29\u6696", "7374": "\u5c3d\u6536\u773c\u5e95", "7375": "\u8d22\u5bcc", "7376": "\u638f", "7377": "\u53e3\u888b", "7378": "11\u67086\u53f7", "7379": "\u5f53\u5f53\u4e0a", "7380": "1421846721", "7381": "\u4fe1\u670d", "7382": "\u7ee7\u7eed\u52aa\u529b", "7383": "\u897f\u5317", "7384": "\u7ecf\u6d4e\u5b66", "7385": "\u51e0\u5341\u5143", "7386": "\u8bd5\u56fe", "7387": "\u58f0\u8a89", "7388": "\u82cf\u4e1c\u5761", "7389": "\u4e0d\u70ed", "7390": "\u9886\u4f1a", "7391": "\u516c\u7528", "7392": "\u6765\u6e90\u4e8e", "7393": "\u5014\u5f3a", "7394": "\u8bba\u575b", "7395": "\u4e00\u6279", "7396": "\u77e5\u8bc6\u5206\u5b50", "7397": "\u63a8\u62ff", "7398": "\u7f8e\u4e2d", "7399": "\u6413", "7400": "\u6df1\u539a", "7401": "\u949f\u70b9", "7402": "\u6570\u6b21", "7403": "\u7b2c", "7404": "\u8109", "7405": "\u9762\u7eb1", "7406": "\u517b\u989c", "7407": "\u51f9", "7408": "\u62b5\u8fbe", "7409": "\u9c8d\u7fc5\u9986", "7410": "\u4e25\u5bc6", "7411": "\u7531\u5f97", "7412": "\u5360\u7528\u7387", "7413": "\u5927\u592b", "7414": "2008\u5e747\u67087\u65e5", "7415": "\u5b89\u59ae", "7416": "\u6d17\u6d01\u7cbe", "7417": "\u5f02\u54cd", "7418": "\u641e\u4e0d\u5b9a", "7419": "\u5b88\u62a4", "7420": "\u4e00\u523b", "7421": "\u6bd2", "7422": "\u5ac9\u5992", "7423": "\u6f0f\u9875", "7424": "\u8bc1\u4e66", "7425": "\u76f8\u8fce", "7426": "\u7236\u8f88", "7427": "ide", "7428": "\u7ea2\u65d7", "7429": "\u4e09\u5bb6", "7430": "\u5bb6\u5ead\u623f", "7431": "\u8f6c\u53bb", "7432": "\u6240\u80fd", "7433": "\u820c\u5934", "7434": "\u4ea1", "7435": "\u54c0\u4f24", "7436": "\u9b54\u672f", "7437": "\u542c\u5b8c", "7438": "\u5c0f\u6258", "7439": "\u6c11\u822a", "7440": "\u6cd5\u5f8b", "7441": "\u73bb\u7483\u623f", "7442": "568\u5143", "7443": "here", "7444": "\u9192\u6765", "7445": "\u53cc\u65b9", "7446": "\u4e34\u5e8a", "7447": "\u8fde\u4f4f", "7448": "\u4ee3\u8868\u6027", "7449": "\u6885\u5c14", "7450": "\u98de\u5929\u5927\u9152\u5e97", "7451": "\u9e21\u6c64", "7452": "\u836f\u54c1", "7453": "\u6c42\u5df1", "7454": "\u501f\u7528", "7455": "\u8f6c\u4e58", "7456": "\u5357\u9633", "7457": "\u7b2c\u4e00\u773c", "7458": "\u5236\u56fe", "7459": " \u8005", "7460": "\u8bf6", "7461": "\u4e09\u664b", "7462": "15.4\u5bf8", "7463": "\u8f93", "7464": "\u4e00\u6478", "7465": "\u6b8b", "7466": "\u5e02\u653f\u5e9c", "7467": "\u4f38\u624b", "7468": "100%", "7469": "\u7cca\u6d82", "7470": "WIN7", "7471": "\u5494\u5494", "7472": "2003", "7473": "\u629b\u5f03", "7474": "\u6e9c", "7475": "\u8f70\u9e23\u58f0", "7476": "\u8001\u603b", "7477": "\u4e92\u52a8", "7478": "\u65e9\u8d77", "7479": "\u53ef\u6068", "7480": "\u4e60\u9898", "7481": "\u97e9\u5267", "7482": "\u897f\u533b", "7483": "\u4e00\u65e0\u662f\u5904", "7484": "\u7e41\u5fd9", "7485": "\u7269\u6b32\u6a2a\u6d41", "7486": "\u5b9e\u5c5e", "7487": "\u7ec6\u5fae", "7488": "\u4e00\u5982", "7489": "\u56ed", "7490": "\u5927\u5382", "7491": "\u98ce\u8303", "7492": "\u5fae\u8f6f", "7493": "\u5927\u5757\u5934", "7494": "\u4e0d\u53ef\u4fe1", "7495": "\u6d6e\u5938", "7496": "\u7f8a\u5934", "7497": "\u72d7\u8089", "7498": "\u6362\u6c14", "7499": "\u9886\u8896", "7500": "\u660e\u4e86", "7501": "\u9f50\u5907", "7502": "\u6211\u5fc3\u4e2d", "7503": "\u5fd9\u5fd9\u788c\u788c\u9547", "7504": "\u661f\u671f\u516d", "7505": "\u518d\u9001", "7506": "\u8fd9\u4e48\u5feb", "7507": "\u6dcb\u6d74\u5934", "7508": "\u6848\u4ef6", "7509": "\u7cbe\u5de7", "7510": "\u5bab\u5ef7", "7511": "\u4e16\u95f4", "7512": "The", "7513": "\u4e0a\u9501", "7514": "\u65bd\u820d", "7515": "\u4e2a\u5b50", "7516": "\u5f69\u7535", "7517": "\u7cbe\u826f", "7518": "\u56de\u60f3", "7519": "\u9020", "7520": "\u52a0\u70ed", "7521": "\u6c34\u676f", "7522": "\u6355\u6349", "7523": "25\u65e5", "7524": "\u53eb\u8f66", "7525": "\u4e24\u5934", "7526": "\u9274\u4e8e", "7527": "\u6d01\u767d", "7528": "\u68c0\u8ba8", "7529": "\u8239", "7530": "\u5c0f\u5fc3\u7ffc\u7ffc", "7531": "\u4e0d\u8981\u8bf4", "7532": "\u6700\u8ba8\u538c", "7533": "\u54c4\u54c4", "7534": "\u8bf4\u4e66", "7535": "\u7ad6", "7536": "\u89e3\u8bf4", "7537": "\u5404\u5904", "7538": "\u5bbd\u5927", "7539": "\u5ea7\u6905", "7540": "4299", "7541": "\u4f55\u65f6", "7542": "\u94fa\u5929\u76d6\u5730", "7543": "\u7684\u5fc3", "7544": "\u6492", "7545": "\u4ec0\u9ebc", "7546": "\u5c0f\u8aaa", "7547": "600\u591a\u5143", "7548": "\u5b57\u6bcd", "7549": "HK", "7550": "\u5b58\u653e", "7551": "\u88c2\u7f1d", "7552": "\u9ad8\u914d", "7553": "\u51e0\u767e\u5757", "7554": "\u5de5\u4f5c\u5173\u7cfb", "7555": "\u6bcf\u4e2a\u6708", "7556": "\u53cb\u8fbe", "7557": "\u9001\u8fbe", "7558": "\u6c1b\u56f4", "7559": "\u82d7\u6761", "7560": "\u9ad8\u5c1a", "7561": "\u4e00\u5143", "7562": "\u4e0a\u53f8", "7563": "\u82db\u523b", "7564": "\u4e0d\u62e9\u624b\u6bb5", "7565": "\u806a\u6167", "7566": "\u5fc3\u673a", "7567": "\u6709\u5931", "7568": "\u5f15\u4eba\u6df1\u601d", "7569": "dvd", "7570": "25\u5206\u949f", "7571": "\u82b1\u6837", "7572": "\u6342", "7573": "\u540d\u4e0d\u865a\u4f20", "7574": "\u75ca\u6108", "7575": "\u670d\u7528", "7576": "\u81f3\u4e0a", "7577": "\u6bb7\u52e4", "7578": "\u51b2\u51fb", "7579": "\u8fce\u9762", "7580": "\u6251", "7581": "320", "7582": "\u4e3d\u6676", "7583": "\u996d\u9986", "7584": "\u5c0f\u5356\u90e8", "7585": "VIP", "7586": "\u6a59\u5b50", "7587": "\u7b14\u89e6", "7588": "\u6545\u4e61", "7589": "8\u4e2a", "7590": "\u4f34", "7591": "\u661f\u671f", "7592": "\u6e9c\u8fbe", "7593": "\u4f4e\u5ec9", "7594": "\u65b0\u8857\u53e3", "7595": "\u6765\u8fd9\u91cc", "7596": "18\u5143", "7597": "\u52fe\u8d77", "7598": "\u4e09\u53e3", "7599": "\u63a8\u5f00", "7600": "\u6d77\u98ce", "7601": "\u96e8\u4f1e", "7602": "\u98ce\u91c7", "7603": "\u6784\u67b6", "7604": "\u5b9a\u65f6", "7605": "\u70ab\u8000", "7606": "\u5806\u79ef", "7607": "\u7a0d\u540e", "7608": "\u5348\u996d", "7609": "\u53d1\u813e\u6c14", "7610": "2\u661f", "7611": "2007\u5e7410\u67088\u65e5", "7612": "\u4eba\u4e3a", "7613": "\u7cfb\u7edf\u6027", "7614": "\u8925\u5b50", "7615": "\u5317\u6234\u6cb3", "7616": "\u731c\u6d4b", "7617": "\u7c73\u590f", "7618": "\u8bf4\u53e5", "7619": "\u5b9e\u8bdd", "7620": "\u7a0b", "7621": "\u4e2d\u548c", "7622": "\u5728\u54ea\u91cc", "7623": "\u6c11\u5c45", "7624": "\u6761\u8857", "7625": "\u7269\u4ef7", "7626": "3\u4e2a\u6708", "7627": "2\u53f0", "7628": "\u6b64\u751f", "7629": "\u7b2c\u4e00\u904d", "7630": "\u5927\u80c6", "7631": "\u53e6\u7c7b", "7632": "\u5e73\u5b89", "7633": "\u865a\u8bbe", "7634": "\u6362\u6389", "7635": "\u6df1\u60c5", "7636": "\u8f93\u51fa", "7637": "\u5de8", "7638": "\u559c\u6b61", "7639": "\u5f8c\u4f86", "7640": "\u74b0\u5883", "7641": "\u96e2", "7642": "\u7f8e\u5473", "7643": "\u4e00\u652f", "7644": "\u604d\u7136\u5927\u609f", "7645": "\u4e00\u56e2", "7646": "\u62f1\u5317", "7647": "\u5173\u53e3", "7648": "\u952e\u7a0b", "7649": "\u6c5f\u5357", "7650": "\u6bd4\u4ef7", "7651": "\u6cc9\u5dde", "7652": "\u6e05\u9999", "7653": "\u7d2f\u8d58", "7654": "\u6e05\u7a7a\u4e07\u91cc", "7655": "\u7269\u6709\u6240", "7656": "\u5145\u5176\u91cf", "7657": "\u7535\u8111\u5305", "7658": "\u79ef\u6c34", "7659": "\u793c\u5bbe", "7660": "\u82b1\u76c6", "7661": "\u660e\u73e0", "7662": "\u5168\u96c6", "7663": "\u534a\u751f", "7664": "2\u4e2a\u591a\u6708", "7665": "\u6d3b\u4e0b\u53bb", "7666": "\u5fc3\u7406\u54a8\u8be2", "7667": "\u5b9e\u4f53", "7668": "\u8fd9\u671f\u95f4", "7669": "\u9876\u76d6", "7670": "\u770b\u5934", "7671": "\u5fc3\u4e8b", "7672": "\u89c6", "7673": "\u6807\u8bc6", "7674": "HR", "7675": "\u6e05\u65e9", "7676": "\u6700\u957f", "7677": "\u4e00\u8def\u4e0a", "7678": "\u5439\u5618", "7679": "\u5085\u4f69\u8363", "7680": "\u73b0\u5df2", "7681": "\u65e0\u7406", "7682": "220\u5143", "7683": "\u8282\u9009", "7684": "3400", "7685": "\u542b\u4e49", "7686": "\u4e8c\u4e2a", "7687": "\u7f3a\u5fb7", "7688": "\u878d\u5408", "7689": "\u59d4\u5c48", "7690": "\u540e\u4ee3", "7691": "\u4e00\u5757\u5757", "7692": "\u4e00\u8138", "7693": "\u6d17\u6da4", "7694": "\u7f13\u7f13", "7695": "\u4ece\u4e00\u5f00\u59cb", "7696": "\u5f71\u97f3", "7697": "\u8bc6\u5b57", "7698": "\u8d5e\u53f9", "7699": "\u540c\u4e00", "7700": "\u63a8\u6572", "7701": "\u8bba\u6587", "7702": "\u8ba4\u8bc1", "7703": "\u505c\u987f", "7704": "\u6b62", "7705": "\u7761\u89c9\u65f6", "7706": "\u5fc3\u5883", "7707": "\u4f11", "7708": "\u7b2c\u4e00\u5bb6", "7709": "\u804c\u4f4d", "7710": "\u8212", "7711": "\u5389\u62e9\u826f", "7712": "\u5378", "7713": "498\u5143", "7714": "\u8003\u7814", "7715": "\u4e0d\u8a00\u800c\u55bb", "7716": "\u6307\u5370", "7717": "\u88cf\u9762", "7718": "\u4ea4\u63a5\u73ed", "7719": "\u767d\u7ca5", "7720": "\u524d\u4e24\u5929", "7721": "\u53d1\u81ea", "7722": "\u7a7a\u8361\u8361", "7723": "\u54af\u54af", "7724": "\u4e24\u4e2a\u665a\u4e0a", "7725": "\u6e0a\u6e90", "7726": "\u7ea2\u5e3d", "7727": "\u6284\u88ad", "7728": "\u98de\u673a\u573a", "7729": "\u4e0b\u53484\u70b9", "7730": "\u665a\u4e0a8\u70b9", "7731": "\u95fb\u5230", "7732": "\u4e2d\u80af", "7733": "\u6574\u4fee", "7734": "\u94f6\u5e06", "7735": "\u4e0d\u7531\u81ea\u4e3b", "7736": "\u7b7e\u540d", "7737": "\u4ef7\u4fdd", "7738": "512", "7739": "\u4e3d\u6c5f", "7740": "\u6709\u60c5", "7741": "\u53e4\u602a", "7742": "\u6253\u53d1", "7743": "\u7ee7\u800c", "7744": "\u6d77\u5929", "7745": "\u8010\u810f", "7746": "1\u74f6", "7747": "\u73ed\u6b21", "7748": "\u5408\u80a5", "7749": "\u4e0d\u65b0", "7750": "\u7279\u5f81", "7751": "\u758f", "7752": "\u52fe\u753b", "7753": "Xp", "7754": "\u79d1\u5b66\u6027", "7755": "\u653e\u7535", "7756": "SD\u5361", "7757": "\u5e0c\u6377", "7758": "\u8d77\u6e90", "7759": "\u81ea\u52a9\u6e38", "7760": "\u60c5\u6000", "7761": "\u4e0a\u73ed\u65cf", "7762": "\u5b9d\u5178", "7763": "\u62d6\u62c9", "7764": "15\u5c42", "7765": "\u95ee\u597d", "7766": "\u95fb\u6240\u672a\u95fb", "7767": "\u8fd9\u672c\u4e66\u540e", "7768": "\u7eda\u4e3d", "7769": "\u4f9d\u8d56", "7770": "\u82e5\u5e72\u5e74", "7771": "\u4e24\u90e8", "7772": "\u9632", "7773": "\u906d", "7774": "\u5b89\u5fbd", "7775": "\u75d8\u75d8", "7776": "\u5e76\u65e0", "7777": "\u52a0\u5feb", "7778": "\u65e0\u89c6", "7779": "\u591a\u770b", "7780": "\u51b7\u9759", "7781": "\u5c11\u8bb8", "7782": "\u5b66\u5b8c", "7783": "\u9752\u86d9", "7784": "911", "7785": "\u4e0d\u5fcd", "7786": "\u65e0\u53ef\u5948\u4f55", "7787": "\u65e0\u5904", "7788": "\u6cb9\u6f06", "7789": "\u8d85\u5dee", "7790": "\u6253\u78e8", "7791": "\u8272\u5dee", "7792": "\u73b0\u4ee3\u4eba", "7793": "\u76d6\u677f", "7794": "\u524d\u4eba", "7795": "\u6cb9\u6761", "7796": "\u67dc\u95e8", "7797": "\u5236\u670d", "7798": "\u8fd1\u65e5", "7799": "\u77ed\u7bc7\u5c0f\u8bf4", "7800": "\u80a0\u80c3", "7801": "\u4e66\u623f", "7802": "\u7eb7\u7eb7", "7803": "\u547c\u5438", "7804": "\u8282\u65e5", "7805": "\u4e2a\u4f53", "7806": "270", "7807": "\u53d1\u9001", "7808": "\u7b80\u7b80\u5355\u5355", "7809": "\u76f8\u79f0", "7810": "2008\u5e747\u670810\u65e5", "7811": "[", "7812": "]", "7813": "39", "7814": "\u4e0d\u7ecf", "7815": "\u5f9e", "7816": "\u614b\u5ea6", "7817": "\u8bf4\u4ec0\u4e48", "7818": "\u4e5f\u6562", "7819": "\u5173\u8054", "7820": "\u4eac\u4e1c\u5546\u57ce", "7821": "\u6392\u6321", "7822": "\u76f8\u8ddd", "7823": "\u5e8a\u5934\u706f", "7824": "\u6389\u8272", "7825": "13", "7826": "\u5f62\u540c\u865a\u8bbe", "7827": "\u65ad\u7ebf", "7828": "\u6bcf\u4e00\u5929", "7829": "\u560e\u5431\u54cd", "7830": "\u7075", "7831": "\u7f16\u53f7", "7832": "\u6539\u540d", "7833": "\u4e00\u56de\u4e8b", "7834": "\u5bc6\u5bc6\u9ebb\u9ebb", "7835": "\u540c\u4f34", "7836": "\u65a9", "7837": "\u626b\u5174", "7838": "\u610f\u613f", "7839": "\u5fc5\u8bfb", "7840": "\u4eba\u7ba1", "7841": "\u4e94\u5e74", "7842": "8\u5c81", "7843": "\u4e2d\u534e\u6c11\u65cf", "7844": "\u7f13\u6162", "7845": "1\u4e2a\u534a\u5c0f\u65f6", "7846": "2899", "7847": "\u841d\u535c", "7848": "\u53a6\u5927", "7849": "\u5426\u5b9a", "7850": "\u7259", "7851": "\u534a\u6b7b", "7852": "\u9676\u9189", "7853": "\u5356\u5f97", "7854": "\u5f00\u623f", "7855": "\u4e94\u672c", "7856": "\u80e1\u626f", "7857": "\u8282\u7535", "7858": "\u54c1\u724c\u673a", "7859": "\u5b9e\u8df5\u6027", "7860": "\u6ee1\u6ee1", "7861": "\u6709\u5f97", "7862": "\u7238", "7863": "\u8bf4\u670d", "7864": "\u697c\u623f\u95f4", "7865": "\u4f01\u4e1a\u5bb6", "7866": "\u5230\u6b64", "7867": "\u6cbf\u9014", "7868": "\u6ee1\u53e3", "7869": "\u9f13\u70b9", "7870": "\u96f6\u6563", "7871": "\u9690\u853d", "7872": "\u9a91", "7873": "\u96c6\u7ed3", "7874": "350\u5143", "7875": "\u5927\u7406\u77f3", "7876": "\u5357\u6234\u6cb3", "7877": "\u9ad8\u4eba", "7878": "\u53c2\u89c2", "7879": "\u5f52\u7eb3", "7880": "\u8ddf\u8e2a", "7881": "F2", "7882": "\u6fc0\u8361", "7883": "5\u4e2a\u534a\u5c0f\u65f6", "7884": "\u6db5\u76d6", "7885": "\u6700\u9ad8\u7ea7", "7886": "\u5bb0\u5ba2", "7887": "\u5403\u4e0d\u6d88", "7888": "\u52ff\u5fd8", "7889": "\u72e0\u72e0", "7890": "\u6709\u4f59", "7891": "BOIS", "7892": "\u594b\u6597", "7893": "\u7b2c\u4e8c\u5957", "7894": "\u4e66\u57ce", "7895": "\u9605\u5386", "7896": "30\u5757", "7897": "\u4e0d\u540c\u4e8e", "7898": "\u5927\u706f", "7899": "\u7761\u4e0d\u7740\u89c9", "7900": "\u5b81\u590f", "7901": "\u6df1\u7701", "7902": "\u8da3\u4e8b", "7903": "\u6dcb", "7904": "V", "7905": "\u7f16\u7a0b", "7906": "\u6210\u679c", "7907": "\u4e0d\u6210\u6b63\u6bd4", "7908": "\u6539\u7f16", "7909": "\u547c", "7910": "\u53e3\u611f", "7911": "\u6446\u653e", "7912": "\u5916\u4eba", "7913": "12\uff1a30", "7914": "5\u4e2a\u591a\u5c0f\u65f6", "7915": "\u63a5\u7ad9", "7916": "4\u82af", "7917": "\u51e0\u90e8", "7918": "\u4eb2\u773c", "7919": "\u5b9a\u8fc7", "7920": "2005\u5e74", "7921": "\u7231\u5fb7\u534e", "7922": "\u770b\u6837\u5b50", "7923": "\u8ff7\u4fe1", "7924": "\u65af\u51ef\u745e", "7925": "\u76f8\u4eff", "7926": "\u592a\u597d", "7927": "\u65b0\u88c5", "7928": "\u7740\u8ff7", "7929": "\u8bb2\u8bb2", "7930": "\u5f00\u706f", "7931": "\u4f1e", "7932": "\u5468\u4e8c", "7933": "led\u5c4f", "7934": "\u4e0b\u5230", "7935": "\u7c89\u4e1d", "7936": "\u5927\u547c", "7937": "\u7cca\u5f04", "7938": "\u5199\u4e66", "7939": "\u4f20\u6388", "7940": "\u80fd\u505a\u5230", "7941": "\u62f7\u8d1d", "7942": "\u592a\u4e11", "7943": "\u82e6\u96be", "7944": "\u51fa\u4eba\u610f\u6599", "7945": "\u7531\u6d45", "7946": "\u4f59\u534e", "7947": "\u5706\u5706", "7948": "\u641e\u4e0d", "7949": "\u62ce", "7950": "\u51ed\u501f", "7951": "\u5468\u516d", "7952": "\u4e00\u7b11", "7953": "\u6709\u5bb3", "7954": "\u661f\u5ea7", "7955": "\u5b97\u6559", "7956": "\u4fee\u884c", "7957": "\u7275\u6d89", "7958": "\u6253\u7ed9", "7959": "\u592a\u5fd9", "7960": "\u4e0d\u4e86\u4e86\u4e4b", "7961": "\u9910\u5377", "7962": "\u5947\u5c0f", "7963": "\u699c", "7964": "\u63a5\u5165", "7965": "\u86ee\u6a2a", "7966": "\u5ea6\u5047\u6751", "7967": "\u751c\u70b9", "7968": "\u5f88\u597d\u5403", "7969": "\u5374\u8bf4", "7970": "\u6e05\u671d", "7971": "\u6551", "7972": "\u4e0b\u53486\u70b9", "7973": "\u5de7\u514b\u529b\u952e\u76d8", "7974": "\u72b9\u5982", "7975": "\u529b\u5ea6", "7976": "\u671f\u671b\u503c", "7977": "\u6b27\u6d32\u676f", "7978": "49", "7979": "\u8fd9\u65f6\u5019", "7980": "\u5b89\u987f", "7981": "\u73e0\u6d77", "7982": "\u5f31\u667a", "7983": "\u8fd9\u4ef6\u4e8b", "7984": "\u8f6e", "7985": "\u4e0d\u4f26\u4e0d\u7c7b", "7986": "\u7d22\u5c3c", "7987": "\u54c1\u884c", "7988": "\u96c6\u56e2", "7989": "3299", "7990": "\u5927\u534a", "7991": "\u738b\u8001\u5e08", "7992": "\u5927\u7231", "7993": "\u6de1\u7136", "7994": "\u8bfb\u53f2", "7995": "\u5957\u7528", "7996": "\u5199\u4e0a", "7997": "\u54d7\u4f17\u53d6\u5ba0", "7998": "\u4fd7\u4eba", "7999": "\u5404\u4eba", "8000": "\u65e0\u8d27", "8001": "\u65e0\u5f62", "8002": "\u7528\u4e66", "8003": "\u552f", "8004": "5000", "8005": "\u9526\u660c\u5927\u9152\u5e97", "8006": "\u5916\u5899", "8007": "\u5357\u9762", "8008": "\u5341\u4e2a", "8009": "\u79bb\u5a5a", "8010": "\u53d1\u8fbe", "8011": "\u81ea\u5907", "8012": "\u5c0f\u9547", "8013": "\u9ad8\u4e2d\u751f", "8014": "\u624e", "8015": "\u9a74\u53cb", "8016": "\u5c31\u8be5", "8017": "\u77f3\u5bb6\u5e84", "8018": "\u4e1c\u8857\u53e3", "8019": "\u7f29\u5c0f", "8020": "\u8de8\u8d8a", "8021": "\u6ca1\u8bdd\u8bf4", "8022": "\u753b\u62a5", "8023": "\u843d\u5730", "8024": "\u51e0\u5e74\u524d", "8025": "\u6d74\u76c6", "8026": "\u8d85\u4e4e\u60f3\u8c61", "8027": "\u6210\u5fc3", "8028": "\u5e7d\u9ed8\u611f", "8029": "\u7f57\u6280", "8030": "16\uff1a10", "8031": "\u7f51\u53cb\u4eec", "8032": "\u6d74\u573a", "8033": "\u53e6\u6709", "8034": "R", "8035": "\u597d\u6b79", "8036": "SL", "8037": "\u8001\u5934", "8038": "\u53d8\u76f8", "8039": "\u6784\u5efa", "8040": "GM", "8041": "21\u53f7", "8042": "\u91cd\u91cd", "8043": "\u5c71\u6c34", "8044": "\u6df3\u6734", "8045": "\u4e5d\u6c5f", "8046": "\u4e1c\u6d77", "8047": "\u4e9a\u9f99\u6e7e", "8048": "\u5165\u7720", "8049": "\u8d62\u5f97", "8050": "11\u67089\u65e5\u4e0b", "8051": "\u53cc\u6838\u5904\u7406\u5668", "8052": "5\u67081\u65e5", "8053": "\u539f\u4ee5\u4e3a\u662f", "8054": "\u5eb7\u4e50", "8055": "\u75af", "8056": "\u5e90\u5c71", "8057": "16\u65e5", "8058": "\u7406\u4f1a", "8059": "\u676f", "8060": "\u53cd\u5bf9", "8061": "\u771f\u5b9e\u611f", "8062": "\u3008", "8063": "\u505a\u4f5c", "8064": "\u4e0d\u6562\u76f8\u4fe1", "8065": "\u7d2f\u4e86", "8066": "\u6d88", "8067": "\u6625", "8068": "\u4e00\u888b", "8069": "\u7535\u529b", "8070": "\u59ff\u52bf", "8071": "\u9996\u6b21", "8072": "\u7518\u8083", "8073": "\u8e0f\u5165", "8074": "\u675f\u7f1a", "8075": "\u5c0f\u57ce\u5e02", "8076": "\u5929\u4e66", "8077": "\u5173\u7231", "8078": "\u575a\u97e7", "8079": "\u6211\u5e0c\u671b", "8080": "\uff29", "8081": "\u5168\u4e16\u754c", "8082": "\u4e22\u4eba", "8083": "m", "8084": "\u751f\u5e73", "8085": "WINPE", "8086": "\u8f6c\u8f74", "8087": "\u9019\u500b", "8088": "\u9762\u65e0\u8868\u60c5", "8089": "\u4e00\u7ea7", "8090": "\u96ea\u82b1\u5c4f", "8091": "2006\u5e74", "8092": "\u6cf0\u56fd", "8093": "\u66f4\u7cdf\u7cd5", "8094": "\u897f\u6570", "8095": "G", "8096": "\u70b9\u83dc", "8097": "\u8d77\u521d", "8098": "\u641e\u4e0d\u597d", "8099": "\u70f9\u996a", "8100": "\u771f\u6c14", "8101": "\u4e2d\u65ad", "8102": "\u60e6\u8bb0", "8103": "\u675c\u7edd", "8104": "\u8bd7\u6b4c", "8105": "\u4ef7\u683c\u9ad8", "8106": "7\u5c81", "8107": "\u4e0a\u7f51\u5361", "8108": "\u4e08\u592b", "8109": "\u4e0d\u7075", "8110": "\u6e38\u89c8", "8111": "\u51e0\u7387", "8112": "\u9644\u52a0", "8113": "\u7a81\u53d1", "8114": "\u65f6\u6bb5", "8115": "\u4ea4\u5f80", "8116": "\u6c89\u601d", "8117": "\u4e11\u964b", "8118": "\u4eec", "8119": "\u53d1\u626c", "8120": "\u6076\u68a6", "8121": "\u77e5\u6653", "8122": "\u65e5\u540e", "8123": "\u4e89\u53d6", "8124": "\u600e\u80fd", "8125": "\u9ad8\u660e", "8126": "\u6362\u6362", "8127": "\u7236\u6bcd\u4eec", "8128": "\u56ed\u6797", "8129": "\u611f\u67d3\u529b", "8130": "\u9884\u5907", "8131": "\u9152\u6c34", "8132": "\u61d2\u89c9", "8133": "\u513f", "8134": "\u5fc3\u65f7\u795e\u6021", "8135": "win7", "8136": "\u7a7a\u8abf", "8137": "\u5e7f\u5ea6", "8138": "\u6cea", "8139": "\u51b0", "8140": "2008\u5e747\u670811\u65e5", "8141": "\u6ce1\u6fa1", "8142": "\u82b1\u5c4f", "8143": "\u4f1a\u513f", "8144": "5\u672c", "8145": "\u4e70\u5b8c", "8146": "\u597d\u591a\u5e74", "8147": "\u6d74", "8148": "\u753b\u98ce", "8149": "\u590f\u65e5", "8150": "\u51c9\u6c34", "8151": "\u8fd9\u4e2a\u8bcd", "8152": "\u5c11\u6570", "8153": "\u60c5\u5f62", "8154": "7\u5929", "8155": "\u8bf4\u5b8c", "8156": "\u7f51\u540d", "8157": "\u6bcd\u5b50", "8158": "\u653e\u7f6e", "8159": "\u80c6\u5c0f", "8160": "\u5c0f\u5973\u5b69", "8161": "\u4f34\u6709", "8162": "\u62ff\u8d77\u6765", "8163": "\u98df\u8865", "8164": "\u5c71\u5be8", "8165": "\u8584\u5f31", "8166": "\u6253\u626e", "8167": "\u7ea2\u9152", "8168": "\u7531\u6b64", "8169": "\u51cf\u8f7b", "8170": "\u5929\u82b1\u677f", "8171": "\u6df1\u610f", "8172": "2\u7c73", "8173": "\u4e4e", "8174": "\u65f6\u9694", "8175": "\u7684\u7231", "8176": "\u8d70\u4e0a\u53bb", "8177": "\u4f5c\u54cd", "8178": "\u94c1\u677f", "8179": "\u968f\u5fc3\u6240\u6b32", "8180": "\u540d\u5bb6", "8181": "\u5934\u76ae", "8182": "\u6253\u5165", "8183": "\u4e2d\u897f", "8184": "\u9aa8\u5b50\u91cc", "8185": "\u4eca\u65e5", "8186": "\u6ca5\u5ddd", "8187": "\u5e38\u5ba2", "8188": "\u62cd\u7167", "8189": "\u73a9\u73a9", "8190": "\u4e0e\u5426", "8191": "\u63a5\u4e0a", "8192": "\u65e0\u7ebf\u8def\u7531\u5668", "8193": "\u6ca1\u6cd5\u6bd4", "8194": "50\u5ea6", "8195": "\u5b57\u5e55", "8196": "\u62a2\u94b1", "8197": "\u5fd2", "8198": "\u6b66\u529f", "8199": "\u6210\u65e7", "8200": "\u5b9e\u529b", "8201": "\u95e8\u5916", "8202": "\u7247\u6bb5", "8203": "\u7406\u79d1", "8204": "\u83b7\u53d6", "8205": "400\u591a", "8206": "\u74f6", "8207": "\u4e3b\u673a", "8208": "\u6307\u5f15", "8209": "2\u5f20", "8210": "\u6728\u5934", "8211": "\u4e0a\u4e2a\u6708", "8212": "\u90ae\u653f", "8213": "\u9759\u4e0b\u5fc3", "8214": "winpe", "8215": "\u624b\u8155", "8216": "\u540c\u4f4f", "8217": "\u51fa\u4e4e", "8218": "\u6444\u50cf", "8219": "\u5b89\u5b81", "8220": "\u683c\u5f0f", "8221": "\u4e32\u8054", "8222": "\u624d\u5b50", "8223": "\u7d6e\u53e8", "8224": "40\u5ea6", "8225": "\u591a\u5c11\u5e74", "8226": "\u6574\u5929", "8227": "\u5bbf\u820d", "8228": "\u5c24\u4e3a", "8229": "\u4ece\u5934\u5230\u5c3e", "8230": "99%", "8231": "\u544a\u8bc9\u4ed6", "8232": "\u4ea4\u505c", "8233": "\u73bb\u7483\u7a97", "8234": "\u91cd\u6e29", "8235": "\u7f8e\u672f", "8236": "\u6bcf\u65e5", "8237": "\u53f9", "8238": "20\u5e74", "8239": "\u51fa\u6e38", "8240": "\u53f0\u9762", "8241": "\u88f8\u9732", "8242": "\u6c57\u989c", "8243": "\u9057\u4f20", "8244": "\u4f34\u968f", "8245": "\u5347\u804c", "8246": "\u8a72", "8247": "\u4ed6\u5011", "8248": "\u9322", "8249": "\u8655\u7406", "8250": "\u7c73\u7c89", "8251": "\u6f4d\u574a", "8252": "\u7406\u76f4", "8253": "\u5f15\u6765", "8254": "\u642c\u5bb6", "8255": "2\u4e2a\u665a\u4e0a", "8256": "\u508d\u665a", "8257": "\u661f\u706b", "8258": "\u95e8\u724c", "8259": "\u6cbf", "8260": "\u4e2d\u5c71", "8261": "\u5f04\u9519", "8262": "\u731b", "8263": "\u81f3\u6781", "8264": "\u98ce\u666f\u533a", "8265": "\u5168\u6587", "8266": "\u91cc\u5934", "8267": "\u5708\u5b50", "8268": "\u9677\u9631", "8269": "\u4e0d\u5584", "8270": "\u6bdb\u6bef", "8271": "\u6bcf\u5206\u949f", "8272": "\u5b89\u5fb7\u70c8", "8273": "sl400", "8274": "\u56fd\u8d38", "8275": "\u9ad8\u4e00\u70b9", "8276": "\u8273\u4e3d", "8277": "\u996e\u7528", "8278": "\u786e\u4fe1", "8279": "\u684c\u6905", "8280": "\u6389\u4e0b\u6765", "8281": "\u5927\u4e86", "8282": "\u81ea\u7136\u98ce", "8283": "\u5965\u5217\u4f1e", "8284": "are", "8285": "\u5b5d\u5fc3", "8286": "\u4e0d\u5c51\u4e00\u987e", "8287": "\u975e\u51e1", "8288": "\u7092\u83dc", "8289": "\u5fc3\u5934", "8290": "\u7537\u751f", "8291": "\u5347\u6e29", "8292": "\u63ed\u5f00", "8293": "\u94a5\u5319\u5361", "8294": "50%", "8295": "\u7172", "8296": "XX", "8297": "\u534e\u4fa8\u5927\u53a6", "8298": "\u7ea2\u7cd6\u59dc\u6c34", "8299": "\u597d\u53ef\u7231", "8300": "\u7231\u8fc7", "8301": "\u68ee\u6797", "8302": "\u8bdd\u8d39", "8303": "\u67d0\u67d0", "8304": "\u5b9e\u4e3a", "8305": "\u51f8", "8306": "\u4ee5\u5f8c", "8307": "\u53ef\u884c", "8308": "\u7269\u4f53", "8309": "\u8bb0\u8005", "8310": "\u4e24\u672c\u4e66", "8311": "GPU", "8312": "\u79d1\u52d2", "8313": "\u7259\u818f", "8314": "\u6e05\u51c0", "8315": "\u62d4\u6389", "8316": "\u65e0\u7a77", "8317": "\u6795\u8fb9", "8318": "\u65e0\u529b", "8319": "\u8a2d\u65bd", "8320": "\u7ecf\u6d4e\u5b9e\u60e0", "8321": "\u6709\u610f", "8322": "\u610f\u60f3\u4e0d\u5230", "8323": "\u8033\u76ee\u4e00\u65b0", "8324": "\u533b\u8005", "8325": "8.9", "8326": "\u5200\u5200", "8327": "\u96a7\u9053", "8328": "\u5899\u89d2", "8329": "\u591a\u5a92\u4f53", "8330": "\u5c0f\u9c7c", "8331": "\u65e9\u4e0a6\u70b9", "8332": "\u505a\u751f\u610f", "8333": "\u865a\u4f2a", "8334": "\u7e41\u6742", "8335": "\u540d\u8bcd", "8336": "\u673a\u5236", "8337": "\u90a3\u672c\u4e66", "8338": "\u4e00\u5927\u65e9", "8339": "\u706d", "8340": "\u5438\u8840\u9b3c", "8341": "\u6237\u5916", "8342": "\u8d77\u70b9", "8343": "\u4e00\u8bfb", "8344": "\u5927\u628a", "8345": "\u6267\u8457", "8346": "\u6211\u53f8", "8347": "\u96f6\u98df", "8348": "\u523b\u677f", "8349": "\u4efb\u52a1\u578b", "8350": "\u89c6\u4e3a", "8351": "\u900f\u6c14", "8352": "\u62fe", "8353": "\u8fdb\u5c4b", "8354": "\u63a8\u5378\u8d23\u4efb", "8355": "5\u5c42", "8356": "\u9694\u5929", "8357": "\u6709\u624d", "8358": "\u5927\u4f17\u5316", "8359": "\u62cd\u6444", "8360": "\u4e00\u5b57", "8361": "\u96fb\u68af", "8362": "\u4ece\u5bb9", "8363": "\u56de\u97f3", "8364": "\u76b1\u5df4\u5df4", "8365": "\u6620\u50cf", "8366": "\u4ea4\u7ed9", "8367": "\u5e26\u8d70", "8368": "\u4e94\u4e2a\u6708", "8369": "1080P", "8370": "\u4e2d\u5916", "8371": "\u6ca1\u611f\u89c9", "8372": "\u9003\u8dd1", "8373": "\u65b0\u534e\u4e66\u5e97", "8374": "\u77e5\u8bc6\u6027", "8375": "\u5584", "8376": "\u5d3d\u5d3d", "8377": "\u8c03\u517b", "8378": "\u60e8\u4e0d\u5fcd\u7779", "8379": "\u62bd\u70df", "8380": "\u9ec4\u91d1\u5468", "8381": "\u767d\u591c\u884c", "8382": "\u88dd\u4fee", "8383": "\u4e0d\u9760", "8384": "\u7a3f\u8d39", "8385": "\u8270\u8f9b", "8386": "\u5904\u4e16", "8387": "\u770b\u6e05", "8388": "\u5730\u9707", "8389": "\u52a8\u9759", "8390": "\u552f\u6709", "8391": "\u5f53\u4e0a", "8392": "\u6cb3\u9053", "8393": "\u6c5f\u82cf", "8394": "\u4ecd\u65e7", "8395": "\u95f9\u5e02\u533a", "8396": "\u95f8\u5761", "8397": "\u52a8\u5bb9", "8398": "\u4fee\u590d", "8399": "\u88c1\u526a", "8400": "\u597d\u4eba", "8401": "\u54ed\u95f9", "8402": "\u5e97\u91cc", "8403": "\u514b\u670d", "8404": "\u81f4\u529b", "8405": "\u8bc4\u8bba\u5bb6", "8406": "\u4f4e\u97f3", "8407": "\u52a8\u7269\u56ed", "8408": "\u5413\u4e00\u8df3", "8409": "\u51f3\u5b50", "8410": "\u9f99\u5e94\u53f0", "8411": "\u6b64\u7406", "8412": "\u4e60\u60ef\u6027", "8413": "\u94a9", "8414": "\u5305\u623f", "8415": "\u4e89\u6267", "8416": "10\u5206\u949f\u540e", "8417": "\u7fa4\u4f53", "8418": "\u83b2\u84ec", "8419": "\u79f0\u9053", "8420": "\u4e94\u4e00\u8282", "8421": "\u6709\u751f", "8422": "\u79d1\u6280", "8423": "\u6574\u591c", "8424": "\u5206\u671f", "8425": "\u8bef\u4eba\u5b50\u5f1f", "8426": "\u754c", "8427": "\u5f15\u5165", "8428": "\u6d41\u901d", "8429": "\u60f3\u6e05\u695a", "8430": "\u515a", "8431": "\u5927\u4ef6", "8432": "\u88ab\u52a8",
[...]
